{
  "version": "1.0",
  "truncation": null,
  "padding": null,
  "added_tokens": [
    {
      "id": 0,
      "content": "[PAD]",
      "single_word": false,
      "lstrip": false,
      "rstrip": false,
      "normalized": false,
      "special": true
    },
    {
      "id": 1,
      "content": "[CLS]",
      "single_word": false,
      "lstrip": false,
      "rstrip": false,
      "normalized": false,
      "special": true
    },
    {
      "id": 2,
      "content": "[SEP]",
      "single_word": false,
      "lstrip": false,
      "rstrip": false,
      "normalized": false,
      "special": true
    },
    {
      "id": 3,
      "content": "[MASK]",
      "single_word": false,
      "lstrip": false,
      "rstrip": false,
      "normalized": false,
      "special": true
    },
    {
      "id": 4,
      "content": "[UNK]",
      "single_word": false,
      "lstrip": false,
      "rstrip": false,
      "normalized": false,
      "special": true
    },
    {
      "id": 5,
      "content": "[BOS]",
      "single_word": false,
      "lstrip": false,
      "rstrip": false,
      "normalized": false,
      "special": true
    },
    {
      "id": 6,
      "content": "[EOS]",
      "single_word": false,
      "lstrip": false,
      "rstrip": false,
      "normalized": false,
      "special": true
    },
    {
      "id": 7,
      "content": "[USER]",
      "single_word": false,
      "lstrip": false,
      "rstrip": false,
      "normalized": false,
      "special": true
    },
    {
      "id": 8,
      "content": "[ASSISTANT]",
      "single_word": false,
      "lstrip": false,
      "rstrip": false,
      "normalized": false,
      "special": true
    }
  ],
  "normalizer": {
    "type": "BertNormalizer",
    "clean_text": true,
    "handle_chinese_chars": false,
    "strip_accents": false,
    "lowercase": true
  },
  "pre_tokenizer": {
    "type": "BertPreTokenizer"
  },
  "post_processor": null,
  "decoder": {
    "type": "WordPiece",
    "prefix": "##",
    "cleanup": true
  },
  "model": {
    "type": "WordPiece",
    "unk_token": "[UNK]",
    "continuing_subword_prefix": "##",
    "max_input_chars_per_word": 100,
    "vocab": {
      "[PAD]": 0,
      "[CLS]": 1,
      "[SEP]": 2,
      "[MASK]": 3,
      "[UNK]": 4,
      "[BOS]": 5,
      "[EOS]": 6,
      "[USER]": 7,
      "[ASSISTANT]": 8,
      "\"": 9,
      "#": 10,
      "$": 11,
      "%": 12,
      "&": 13,
      "'": 14,
      "(": 15,
      ")": 16,
      "*": 17,
      "+": 18,
      ",": 19,
      "-": 20,
      "/": 21,
      ":": 22,
      ";": 23,
      "<": 24,
      "=": 25,
      ">": 26,
      "@": 27,
      "[": 28,
      "\\": 29,
      "]": 30,
      "^": 31,
      "_": 32,
      "`": 33,
      "a": 34,
      "b": 35,
      "c": 36,
      "d": 37,
      "e": 38,
      "f": 39,
      "g": 40,
      "h": 41,
      "i": 42,
      "j": 43,
      "k": 44,
      "l": 45,
      "m": 46,
      "n": 47,
      "o": 48,
      "p": 49,
      "q": 50,
      "r": 51,
      "s": 52,
      "t": 53,
      "u": 54,
      "v": 55,
      "w": 56,
      "x": 57,
      "y": 58,
      "z": 59,
      "{": 60,
      "|": 61,
      "}": 62,
      "~": 63,
      "£": 64,
      "§": 65,
      "©": 66,
      "«": 67,
      "®": 68,
      "°": 69,
      "±": 70,
      "²": 71,
      "³": 72,
      "´": 73,
      "µ": 74,
      "·": 75,
      "º": 76,
      "»": 77,
      "¼": 78,
      "½": 79,
      "×": 80,
      "ß": 81,
      "à": 82,
      "á": 83,
      "â": 84,
      "ã": 85,
      "ä": 86,
      "å": 87,
      "æ": 88,
      "ç": 89,
      "è": 90,
      "é": 91,
      "ê": 92,
      "ë": 93,
      "ì": 94,
      "í": 95,
      "î": 96,
      "ï": 97,
      "ð": 98,
      "ñ": 99,
      "ò": 100,
      "ó": 101,
      "ô": 102,
      "õ": 103,
      "ö": 104,
      "ø": 105,
      "ù": 106,
      "ú": 107,
      "û": 108,
      "ü": 109,
      "þ": 110,
      "ā": 111,
      "ă": 112,
      "ć": 113,
      "č": 114,
      "ē": 115,
      "ě": 116,
      "ğ": 117,
      "ĩ": 118,
      "ī": 119,
      "ı": 120,
      "ł": 121,
      "ń": 122,
      "ŋ": 123,
      "ō": 124,
      "œ": 125,
      "ś": 126,
      "ş": 127,
      "š": 128,
      "ū": 129,
      "ž": 130,
      "ǎ": 131,
      "ǐ": 132,
      "ǔ": 133,
      "ɐ": 134,
      "ɑ": 135,
      "ɒ": 136,
      "ɔ": 137,
      "ɕ": 138,
      "ə": 139,
      "ɛ": 140,
      "ɡ": 141,
      "ɣ": 142,
      "ɦ": 143,
      "ɨ": 144,
      "ɪ": 145,
      "ɯ": 146,
      "ɲ": 147,
      "ɵ": 148,
      "ɾ": 149,
      "ʀ": 150,
      "ʁ": 151,
      "ʃ": 152,
      "ʉ": 153,
      "ʊ": 154,
      "ʋ": 155,
      "ʌ": 156,
      "ʎ": 157,
      "ʒ": 158,
      "ʔ": 159,
      "ʕ": 160,
      "ʰ": 161,
      "ʲ": 162,
      "ʻ": 163,
      "ʼ": 164,
      "ʾ": 165,
      "ʿ": 166,
      "ˇ": 167,
      "ˈ": 168,
      "ˌ": 169,
      "ː": 170,
      "̀": 171,
      "́": 172,
      "̃": 173,
      "̄": 174,
      "̅": 175,
      "̆": 176,
      "̌": 177,
      "̣": 178,
      "̪": 179,
      "̯": 180,
      "͡": 181,
      "ά": 182,
      "έ": 183,
      "ή": 184,
      "ί": 185,
      "α": 186,
      "β": 187,
      "γ": 188,
      "δ": 189,
      "ε": 190,
      "ζ": 191,
      "η": 192,
      "θ": 193,
      "ι": 194,
      "κ": 195,
      "λ": 196,
      "μ": 197,
      "ν": 198,
      "ξ": 199,
      "ο": 200,
      "π": 201,
      "ρ": 202,
      "ς": 203,
      "σ": 204,
      "τ": 205,
      "υ": 206,
      "φ": 207,
      "χ": 208,
      "ψ": 209,
      "ω": 210,
      "ό": 211,
      "ύ": 212,
      "ώ": 213,
      "ϫ": 214,
      "ϯ": 215,
      "а": 216,
      "б": 217,
      "в": 218,
      "г": 219,
      "д": 220,
      "е": 221,
      "ж": 222,
      "з": 223,
      "и": 224,
      "й": 225,
      "к": 226,
      "л": 227,
      "м": 228,
      "н": 229,
      "о": 230,
      "п": 231,
      "р": 232,
      "с": 233,
      "т": 234,
      "у": 235,
      "ф": 236,
      "х": 237,
      "ц": 238,
      "ч": 239,
      "ш": 240,
      "щ": 241,
      "ъ": 242,
      "ы": 243,
      "ь": 244,
      "ю": 245,
      "я": 246,
      "ё": 247,
      "і": 248,
      "ї": 249,
      "қ": 250,
      "ҝ": 251,
      "ҡ": 252,
      "ӏ": 253,
      "ա": 254,
      "բ": 255,
      "դ": 256,
      "ե": 257,
      "ի": 258,
      "լ": 259,
      "կ": 260,
      "ղ": 261,
      "ճ": 262,
      "մ": 263,
      "յ": 264,
      "ն": 265,
      "շ": 266,
      "ո": 267,
      "պ": 268,
      "ռ": 269,
      "ս": 270,
      "վ": 271,
      "տ": 272,
      "ր": 273,
      "ւ": 274,
      "ք": 275,
      "ְ": 276,
      "ִ": 277,
      "ַ": 278,
      "ָ": 279,
      "ּ": 280,
      "א": 281,
      "ב": 282,
      "ג": 283,
      "ד": 284,
      "ה": 285,
      "ו": 286,
      "ח": 287,
      "ט": 288,
      "י": 289,
      "כ": 290,
      "ל": 291,
      "ם": 292,
      "מ": 293,
      "ן": 294,
      "נ": 295,
      "ס": 296,
      "ע": 297,
      "פ": 298,
      "צ": 299,
      "ק": 300,
      "ר": 301,
      "ש": 302,
      "ת": 303,
      "ء": 304,
      "آ": 305,
      "أ": 306,
      "ؤ": 307,
      "إ": 308,
      "ئ": 309,
      "ا": 310,
      "ب": 311,
      "ة": 312,
      "ت": 313,
      "ث": 314,
      "ج": 315,
      "ح": 316,
      "خ": 317,
      "د": 318,
      "ذ": 319,
      "ر": 320,
      "ز": 321,
      "س": 322,
      "ش": 323,
      "ص": 324,
      "ض": 325,
      "ط": 326,
      "ظ": 327,
      "ع": 328,
      "غ": 329,
      "ـ": 330,
      "ف": 331,
      "ق": 332,
      "ك": 333,
      "ل": 334,
      "م": 335,
      "ن": 336,
      "ه": 337,
      "و": 338,
      "ى": 339,
      "ي": 340,
      "ً": 341,
      "ٌ": 342,
      "ٍ": 343,
      "َ": 344,
      "ُ": 345,
      "ِ": 346,
      "ّ": 347,
      "ْ": 348,
      "ٓ": 349,
      "ٔ": 350,
      "ٰ": 351,
      "ٱ": 352,
      "ٹ": 353,
      "پ": 354,
      "چ": 355,
      "ڈ": 356,
      "ڑ": 357,
      "ڠ": 358,
      "ک": 359,
      "گ": 360,
      "ھ": 361,
      "ہ": 362,
      "ی": 363,
      "ے": 364,
      "۟": 365,
      "ۡ": 366,
      "ۥ": 367,
      "ۦ": 368,
      "ܐ": 369,
      "ܘ": 370,
      "ܝ": 371,
      "ܠ": 372,
      "ܣ": 373,
      "ܫ": 374,
      "ँ": 375,
      "ं": 376,
      "ः": 377,
      "अ": 378,
      "आ": 379,
      "इ": 380,
      "ई": 381,
      "उ": 382,
      "ए": 383,
      "औ": 384,
      "क": 385,
      "ख": 386,
      "ग": 387,
      "घ": 388,
      "ङ": 389,
      "च": 390,
      "छ": 391,
      "ज": 392,
      "झ": 393,
      "ट": 394,
      "ठ": 395,
      "ड": 396,
      "ढ": 397,
      "ण": 398,
      "त": 399,
      "थ": 400,
      "द": 401,
      "ध": 402,
      "न": 403,
      "प": 404,
      "फ": 405,
      "ब": 406,
      "भ": 407,
      "म": 408,
      "य": 409,
      "र": 410,
      "ल": 411,
      "ळ": 412,
      "व": 413,
      "श": 414,
      "ष": 415,
      "स": 416,
      "ह": 417,
      "़": 418,
      "ा": 419,
      "ि": 420,
      "ी": 421,
      "ु": 422,
      "ू": 423,
      "ृ": 424,
      "े": 425,
      "ै": 426,
      "ो": 427,
      "ौ": 428,
      "्": 429,
      "ॐ": 430,
      "॥": 431,
      "ং": 432,
      "অ": 433,
      "আ": 434,
      "ক": 435,
      "গ": 436,
      "চ": 437,
      "জ": 438,
      "ট": 439,
      "ড": 440,
      "ত": 441,
      "দ": 442,
      "ধ": 443,
      "ন": 444,
      "প": 445,
      "ব": 446,
      "ভ": 447,
      "ম": 448,
      "য": 449,
      "র": 450,
      "ল": 451,
      "শ": 452,
      "ষ": 453,
      "স": 454,
      "হ": 455,
      "়": 456,
      "া": 457,
      "ি": 458,
      "ী": 459,
      "ু": 460,
      "ে": 461,
      "ো": 462,
      "্": 463,
      "ਆ": 464,
      "ਕ": 465,
      "ਖ": 466,
      "ਗ": 467,
      "ਘ": 468,
      "ਛ": 469,
      "ਜ": 470,
      "ਟ": 471,
      "ਣ": 472,
      "ਤ": 473,
      "ਦ": 474,
      "ਨ": 475,
      "ਪ": 476,
      "ਬ": 477,
      "ਮ": 478,
      "ਰ": 479,
      "ਲ": 480,
      "ਵ": 481,
      "ਸ": 482,
      "ਹ": 483,
      "ਾ": 484,
      "ਿ": 485,
      "ੀ": 486,
      "ੁ": 487,
      "ੂ": 488,
      "ੇ": 489,
      "ੋ": 490,
      "ੰ": 491,
      "ੱ": 492,
      "દ": 493,
      "ર": 494,
      "அ": 495,
      "ஆ": 496,
      "இ": 497,
      "உ": 498,
      "எ": 499,
      "ஏ": 500,
      "ஐ": 501,
      "க": 502,
      "ங": 503,
      "ச": 504,
      "ஜ": 505,
      "ட": 506,
      "ண": 507,
      "த": 508,
      "ந": 509,
      "ன": 510,
      "ப": 511,
      "ம": 512,
      "ய": 513,
      "ர": 514,
      "ற": 515,
      "ல": 516,
      "ள": 517,
      "ழ": 518,
      "வ": 519,
      "ஸ": 520,
      "ா": 521,
      "ி": 522,
      "ீ": 523,
      "ு": 524,
      "ூ": 525,
      "ெ": 526,
      "ே": 527,
      "ை": 528,
      "ொ": 529,
      "ோ": 530,
      "்": 531,
      "ం": 532,
      "త": 533,
      "ద": 534,
      "న": 535,
      "ర": 536,
      "ల": 537,
      "ా": 538,
      "ె": 539,
      "్": 540,
      "ಂ": 541,
      "ಕ": 542,
      "ಗ": 543,
      "ಚ": 544,
      "ಜ": 545,
      "ಟ": 546,
      "ಡ": 547,
      "ತ": 548,
      "ಥ": 549,
      "ದ": 550,
      "ನ": 551,
      "ಪ": 552,
      "ಬ": 553,
      "ಮ": 554,
      "ಯ": 555,
      "ರ": 556,
      "ಲ": 557,
      "ಳ": 558,
      "ವ": 559,
      "ಶ": 560,
      "ಸ": 561,
      "ಹ": 562,
      "ಾ": 563,
      "ಿ": 564,
      "ೀ": 565,
      "ು": 566,
      "ೂ": 567,
      "ೆ": 568,
      "ೇ": 569,
      "ೊ": 570,
      "ೋ": 571,
      "್": 572,
      "ം": 573,
      "ഃ": 574,
      "അ": 575,
      "ആ": 576,
      "ഇ": 577,
      "ഈ": 578,
      "ഉ": 579,
      "ഊ": 580,
      "ഋ": 581,
      "ഌ": 582,
      "എ": 583,
      "ഏ": 584,
      "ഐ": 585,
      "ഒ": 586,
      "ഓ": 587,
      "ഔ": 588,
      "ക": 589,
      "ഖ": 590,
      "ഗ": 591,
      "ഘ": 592,
      "ങ": 593,
      "ച": 594,
      "ഛ": 595,
      "ജ": 596,
      "ഝ": 597,
      "ഞ": 598,
      "ട": 599,
      "ഠ": 600,
      "ഡ": 601,
      "ഢ": 602,
      "ണ": 603,
      "ത": 604,
      "ഥ": 605,
      "ദ": 606,
      "ധ": 607,
      "ന": 608,
      "പ": 609,
      "ഫ": 610,
      "ബ": 611,
      "ഭ": 612,
      "മ": 613,
      "യ": 614,
      "ര": 615,
      "റ": 616,
      "ല": 617,
      "ള": 618,
      "ഴ": 619,
      "വ": 620,
      "ശ": 621,
      "ഷ": 622,
      "സ": 623,
      "ഹ": 624,
      "഼": 625,
      "ാ": 626,
      "ി": 627,
      "ീ": 628,
      "ു": 629,
      "ൂ": 630,
      "ൃ": 631,
      "ൄ": 632,
      "െ": 633,
      "േ": 634,
      "ൈ": 635,
      "ൊ": 636,
      "ോ": 637,
      "ൌ": 638,
      "്": 639,
      "ൗ": 640,
      "ൠ": 641,
      "ൡ": 642,
      "൹": 643,
      "ൺ": 644,
      "ൻ": 645,
      "ർ": 646,
      "ൽ": 647,
      "ൾ": 648,
      "ൿ": 649,
      "එ": 650,
      "ක": 651,
      "ණ": 652,
      "ත": 653,
      "න": 654,
      "ම": 655,
      "ය": 656,
      "ර": 657,
      "ල": 658,
      "්": 659,
      "ා": 660,
      "ි": 661,
      "ු": 662,
      "ก": 663,
      "ข": 664,
      "ค": 665,
      "ง": 666,
      "จ": 667,
      "ช": 668,
      "ด": 669,
      "ต": 670,
      "ท": 671,
      "ธ": 672,
      "น": 673,
      "บ": 674,
      "ป": 675,
      "ผ": 676,
      "พ": 677,
      "ม": 678,
      "ย": 679,
      "ร": 680,
      "ล": 681,
      "ว": 682,
      "ส": 683,
      "ห": 684,
      "อ": 685,
      "ะ": 686,
      "ั": 687,
      "า": 688,
      "ำ": 689,
      "ิ": 690,
      "ี": 691,
      "ุ": 692,
      "ู": 693,
      "เ": 694,
      "แ": 695,
      "โ": 696,
      "่": 697,
      "้": 698,
      "๏": 699,
      "་": 700,
      "།": 701,
      "ཀ": 702,
      "ད": 703,
      "པ": 704,
      "བ": 705,
      "ར": 706,
      "ས": 707,
      "ཱ": 708,
      "ི": 709,
      "ུ": 710,
      "ེ": 711,
      "ོ": 712,
      "ླ": 713,
      "င": 714,
      "တ": 715,
      "မ": 716,
      "ရ": 717,
      "ာ": 718,
      "ေ": 719,
      "း": 720,
      "်": 721,
      "ှ": 722,
      "ა": 723,
      "ბ": 724,
      "გ": 725,
      "ე": 726,
      "ვ": 727,
      "ი": 728,
      "ლ": 729,
      "მ": 730,
      "ნ": 731,
      "ო": 732,
      "რ": 733,
      "ს": 734,
      "ტ": 735,
      "უ": 736,
      "ხ": 737,
      "ង": 738,
      "ា": 739,
      "ᵇ": 740,
      "ḍ": 741,
      "ḥ": 742,
      "ḫ": 743,
      "ḷ": 744,
      "ṃ": 745,
      "ṅ": 746,
      "ṇ": 747,
      "ṛ": 748,
      "ṟ": 749,
      "ṣ": 750,
      "ṭ": 751,
      "ạ": 752,
      "ẻ": 753,
      "ủ": 754,
      "ἀ": 755,
      "ἄ": 756,
      "ἠ": 757,
      "ὀ": 758,
      "ὕ": 759,
      "ὶ": 760,
      "ῆ": 761,
      "ῖ": 762,
      "ῶ": 763,
      "‐": 764,
      "‑": 765,
      "–": 766,
      "—": 767,
      "―": 768,
      "‘": 769,
      "’": 770,
      "“": 771,
      "”": 772,
      "†": 773,
      "•": 774,
      "…": 775,
      "′": 776,
      "″": 777,
      "‹": 778,
      "›": 779,
      "⁄": 780,
      "₂": 781,
      "€": 782,
      "₹": 783,
      "ℓ": 784,
      "№": 785,
      "←": 786,
      "↑": 787,
      "→": 788,
      "⇌": 789,
      "∈": 790,
      "−": 791,
      "∙": 792,
      "√": 793,
      "≠": 794,
      "≡": 795,
      "≤": 796,
      "≥": 797,
      "⊿": 798,
      "⏺": 799,
      "─": 800,
      "│": 801,
      "└": 802,
      "├": 803,
      "■": 804,
      "□": 805,
      "▪": 806,
      "◆": 807,
      "◇": 808,
      "◉": 809,
      "●": 810,
      "◼": 811,
      "☛": 812,
      "♂": 813,
      "♞": 814,
      "♥": 815,
      "♦": 816,
      "♪": 817,
      "♫": 818,
      "♬": 819,
      "✔": 820,
      "✳": 821,
      "❍": 822,
      "❑": 823,
      "❓": 824,
      "❖": 825,
      "❤": 826,
      "⭕": 827,
      "ⲁ": 828,
      "ⲅ": 829,
      "ⲉ": 830,
      "ⲏ": 831,
      "ⲓ": 832,
      "ⲕ": 833,
      "ⲙ": 834,
      "ⲛ": 835,
      "ⲟ": 836,
      "ⲡ": 837,
      "ⲣ": 838,
      "ⲥ": 839,
      "ⲧ": 840,
      "ⲩ": 841,
      "ⲭ": 842,
      "ⴰ": 843,
      "ⵉ": 844,
      "ⵜ": 845,
      "ⵣ": 846,
      "、": 847,
      "い": 848,
      "お": 849,
      "か": 850,
      "し": 851,
      "す": 852,
      "の": 853,
      "ア": 854,
      "イ": 855,
      "カ": 856,
      "キ": 857,
      "ジ": 858,
      "ト": 859,
      "マ": 860,
      "ル": 861,
      "ン": 862,
      "・": 863,
      "ー": 864,
      "一": 865,
      "三": 866,
      "下": 867,
      "之": 868,
      "京": 869,
      "人": 870,
      "代": 871,
      "光": 872,
      "公": 873,
      "出": 874,
      "利": 875,
      "化": 876,
      "南": 877,
      "台": 878,
      "司": 879,
      "合": 880,
      "吳": 881,
      "和": 882,
      "員": 883,
      "器": 884,
      "四": 885,
      "国": 886,
      "園": 887,
      "圓": 888,
      "城": 889,
      "大": 890,
      "子": 891,
      "宮": 892,
      "寿": 893,
      "小": 894,
      "山": 895,
      "島": 896,
      "平": 897,
      "弘": 898,
      "手": 899,
      "文": 900,
      "日": 901,
      "書": 902,
      "月": 903,
      "木": 904,
      "本": 905,
      "東": 906,
      "桂": 907,
      "毛": 908,
      "毫": 909,
      "水": 910,
      "江": 911,
      "海": 912,
      "清": 913,
      "港": 914,
      "湯": 915,
      "漆": 916,
      "潤": 917,
      "澤": 918,
      "灣": 919,
      "火": 920,
      "物": 921,
      "田": 922,
      "畫": 923,
      "白": 924,
      "硯": 925,
      "神": 926,
      "立": 927,
      "筆": 928,
      "米": 929,
      "紙": 930,
      "紫": 931,
      "絵": 932,
      "脚": 933,
      "臺": 934,
      "茶": 935,
      "蒔": 936,
      "薄": 937,
      "蘇": 938,
      "赤": 939,
      "越": 940,
      "足": 941,
      "通": 942,
      "道": 943,
      "都": 944,
      "酒": 945,
      "酢": 946,
      "金": 947,
      "長": 948,
      "閣": 949,
      "阿": 950,
      "青": 951,
      "飯": 952,
      "餅": 953,
      "麹": 954,
      "️": 955,
      "￼": 956,
      "𝐀": 957,
      "𝐄": 958,
      "𝐊": 959,
      "𝐋": 960,
      "𝐑": 961,
      "𝐡": 962,
      "𝐢": 963,
      "𝐣": 964,
      "𝐧": 965,
      "𝐫": 966,
      "𝐬": 967,
      "𝐮": 968,
      "𝗮": 969,
      "𝗼": 970,
      "𝗿": 971,
      "𝘀": 972,
      "𝘁": 973,
      "𝘦": 974,
      "𝘳": 975,
      "𝙻": 976,
      "🌹": 977,
      "🏆": 978,
      "🏻": 979,
      "🏽": 980,
      "👇": 981,
      "👉": 982,
      "💕": 983,
      "💙": 984,
      "💞": 985,
      "💪": 986,
      "📈": 987,
      "📌": 988,
      "📵": 989,
      "🔥": 990,
      "😀": 991,
      "😁": 992,
      "😂": 993,
      "😃": 994,
      "😄": 995,
      "😅": 996,
      "😉": 997,
      "😊": 998,
      "😍": 999,
      "😘": 1000,
      "😣": 1001,
      "😭": 1002,
      "🙂": 1003,
      "🙏": 1004,
      "🚗": 1005,
      "🚫": 1006,
      "🤗": 1007,
      "🥰": 1008,
      "##ം": 1009,
      "##എ": 1010,
      "##ൽ": 1011,
      "##യ": 1012,
      "##ു": 1013,
      "##ട": 1014,
      "##േ": 1015,
      "##ത": 1016,
      "##്": 1017,
      "##റ": 1018,
      "##ന": 1019,
      "##െ": 1020,
      "##ല": 1021,
      "##ാ": 1022,
      "##ി": 1023,
      "##വ": 1024,
      "##ർ": 1025,
      "##ക": 1026,
      "##ര": 1027,
      "##ദ": 1028,
      "##ധ": 1029,
      "##പ": 1030,
      "##ങ": 1031,
      "##ള": 1032,
      "##ണ": 1033,
      "##ീ": 1034,
      "##മ": 1035,
      "##ോ": 1036,
      "##സ": 1037,
      "##ഫ": 1038,
      "##ശ": 1039,
      "##ഷ": 1040,
      "##ജ": 1041,
      "##ഴ": 1042,
      "##ച": 1043,
      "##ൂ": 1044,
      "##ൊ": 1045,
      "##ഡ": 1046,
      "##ഞ": 1047,
      "##ഗ": 1048,
      "##ഥ": 1049,
      "##ൾ": 1050,
      "##ഹ": 1051,
      "##ൃ": 1052,
      "##ൻ": 1053,
      "##t": 1054,
      "##i": 1055,
      "##g": 1056,
      "##m": 1057,
      "##a": 1058,
      "##ഠ": 1059,
      "##h": 1060,
      "##ൈ": 1061,
      "##ഃ": 1062,
      "##ഭ": 1063,
      "##o": 1064,
      "##e": 1065,
      "##n": 1066,
      "##ൺ": 1067,
      "##ബ": 1068,
      "##ൌ": 1069,
      "##r": 1070,
      "##ഛ": 1071,
      "##അ": 1072,
      "##ഖ": 1073,
      "##d": 1074,
      "##ഢ": 1075,
      "##l": 1076,
      "##u": 1077,
      "##s": 1078,
      "##c": 1079,
      "##k": 1080,
      "##ɪ": 1081,
      "##ˈ": 1082,
      "##v": 1083,
      "##َ": 1084,
      "##و": 1085,
      "##ّ": 1086,
      "##ا": 1087,
      "##ب": 1088,
      "##ً": 1089,
      "##ഒ": 1090,
      "##j": 1091,
      "##ഘ": 1092,
      "##w": 1093,
      "##ൗ": 1094,
      "##ഓ": 1095,
      "##ഇ": 1096,
      "##p": 1097,
      "##ʿ": 1098,
      "##ā": 1099,
      "##f": 1100,
      "##ō": 1101,
      "##x": 1102,
      "##y": 1103,
      "##в": 1104,
      "##а": 1105,
      "##́": 1106,
      "##н": 1107,
      "##b": 1108,
      "##ṭ": 1109,
      "##ഉ": 1110,
      "##्": 1111,
      "##य": 1112,
      "##ो": 1113,
      "##त": 1114,
      "##ि": 1115,
      "##ष": 1116,
      "##ഐ": 1117,
      "##ನ": 1118,
      "##್": 1119,
      "##ಡ": 1120,
      "##ر": 1121,
      "##ي": 1122,
      "##ड": 1123,
      "##ആ": 1124,
      "##и": 1125,
      "##е": 1126,
      "##ä": 1127,
      "##z": 1128,
      "##ཱ": 1129,
      "##é": 1130,
      "##ഏ": 1131,
      "##ഈ": 1132,
      "##ف": 1133,
      "##഼": 1134,
      "##á": 1135,
      "##о": 1136,
      "##д": 1137,
      "##г": 1138,
      "##р": 1139,
      "##ц": 1140,
      "##ා": 1141,
      "##න": 1142,
      "##ි": 1143,
      "##ය": 1144,
      "##æ": 1145,
      "##ə": 1146,
      "##q": 1147,
      "##с": 1148,
      "##т": 1149,
      "##ق": 1150,
      "##ഝ": 1151,
      "##л": 1152,
      "##ч": 1153,
      "##ل": 1154,
      "##ع": 1155,
      "##د": 1156,
      "##ن": 1157,
      "##ഌ": 1158,
      "##∙": 1159,
      "##ɔ": 1160,
      "##ɲ": 1161,
      "##ى": 1162,
      "##ك": 1163,
      "##ڑ": 1164,
      "##ی": 1165,
      "##ൿ": 1166,
      "##ó": 1167,
      "##ל": 1168,
      "##ⲙ": 1169,
      "##ⲓ": 1170,
      "##й": 1171,
      "##к": 1172,
      "##у": 1173,
      "##म": 1174,
      "##ख": 1175,
      "##़": 1176,
      "##ा": 1177,
      "##न": 1178,
      "##ū": 1179,
      "##γ": 1180,
      "##ῶ": 1181,
      "##ν": 1182,
      "##ε": 1183,
      "##ς": 1184,
      "##€": 1185,
      "##ु": 1186,
      "##र": 1187,
      "##प": 1188,
      "##х": 1189,
      "##ш": 1190,
      "##️": 1191,
      "##❤": 1192,
      "##ú": 1193,
      "##ه": 1194,
      "##ِ": 1195,
      "##ு": 1196,
      "##த": 1197,
      "##்": 1198,
      "##ج": 1199,
      "##ة": 1200,
      "##道": 1201,
      "##κ": 1202,
      "##φ": 1203,
      "##ط": 1204,
      "##ɛ": 1205,
      "##ː": 1206,
      "##ρ": 1207,
      "##ύ": 1208,
      "##ι": 1209,
      "##م": 1210,
      "##μ": 1211,
      "##έ": 1212,
      "##α": 1213,
      "##ഔ": 1214,
      "##ོ": 1215,
      "##ར": 1216,
      "##ت": 1217,
      "##ح": 1218,
      "##ہ": 1219,
      "##餅": 1220,
      "##â": 1221,
      "##б": 1222,
      "##і": 1223,
      "##ї": 1224,
      "##ೋ": 1225,
      "##ಪ": 1226,
      "##ா": 1227,
      "##ண": 1228,
      "##ப": 1229,
      "##ம": 1230,
      "##ி": 1231,
      "##க": 1232,
      "##ಸ": 1233,
      "##ೂ": 1234,
      "##ರ": 1235,
      "##ட": 1236,
      "##ச": 1237,
      "##ய": 1238,
      "##ன": 1239,
      "##員": 1240,
      "##յ": 1241,
      "##ո": 1242,
      "##ւ": 1243,
      "##ր": 1244,
      "##ե": 1245,
      "##ղ": 1246,
      "##ं": 1247,
      "##ल": 1248,
      "##ê": 1249,
      "##ο": 1250,
      "##ʲ": 1251,
      "##ɕ": 1252,
      "##ர": 1253,
      "##ஜ": 1254,
      "##ْ": 1255,
      "##ُ": 1256,
      "##स": 1257,
      "##द": 1258,
      "##à": 1259,
      "##ெ": 1260,
      "##ங": 1261,
      "##ோ": 1262,
      "##ை": 1263,
      "##े": 1264,
      "##व": 1265,
      "##ग": 1266,
      "##ी": 1267,
      "##ί": 1268,
      "##ె": 1269,
      "##ల": 1270,
      "##్": 1271,
      "##च": 1272,
      "##ൄ": 1273,
      "##ත": 1274,
      "##්": 1275,
      "##য": 1276,
      "##়": 1277,
      "##ন": 1278,
      "##গ": 1279,
      "##র": 1280,
      "##ে": 1281,
      "##🏻": 1282,
      "##λ": 1283,
      "##ज": 1284,
      "##श": 1285,
      "##ण": 1286,
      "##ī": 1287,
      "##ذ": 1288,
      "##چ": 1289,
      "##ڠ": 1290,
      "##غ": 1291,
      "##ش": 1292,
      "##í": 1293,
      "##ы": 1294,
      "##ै": 1295,
      "##ः": 1296,
      "##ʊ": 1297,
      "##−": 1298,
      "##●": 1299,
      "##י": 1300,
      "##ה": 1301,
      "##ɑ": 1302,
      "##ɦ": 1303,
      "##ŋ": 1304,
      "##ি": 1305,
      "##ভ": 1306,
      "##া": 1307,
      "##ீ": 1308,
      "##ழ": 1309,
      "##ே": 1310,
      "##ʃ": 1311,
      "##ʕ": 1312,
      "##ϫ": 1313,
      "##ص": 1314,
      "##ʔ": 1315,
      "##ա": 1316,
      "##մ": 1317,
      "##բ": 1318,
      "##կ": 1319,
      "##å": 1320,
      "##ë": 1321,
      "##ಿ": 1322,
      "##ಶ": 1323,
      "##ವ": 1324,
      "##ಾ": 1325,
      "##ಥ": 1326,
      "##ٓ": 1327,
      "##š": 1328,
      "##ல": 1329,
      "##ள": 1330,
      "##ь": 1331,
      "##ა": 1332,
      "##გ": 1333,
      "##რ": 1334,
      "##ტ": 1335,
      "##ი": 1336,
      "##מ": 1337,
      "##ו": 1338,
      "##潤": 1339,
      "##ँ": 1340,
      "##س": 1341,
      "##ਾ": 1342,
      "##ਨ": 1343,
      "##ੂ": 1344,
      "##ੰ": 1345,
      "##வ": 1346,
      "##ஸ": 1347,
      "##🙂": 1348,
      "##ൡ": 1349,
      "##ٍ": 1350,
      "##ɒ": 1351,
      "##❓": 1352,
      "##ू": 1353,
      "##飯": 1354,
      "##շ": 1355,
      "##տ": 1356,
      "##ş": 1357,
      "##ı": 1358,
      "##δ": 1359,
      "##υ": 1360,
      "##σ": 1361,
      "##宮": 1362,
      "##清": 1363,
      "##子": 1364,
      "##ɐ": 1365,
      "##ੇ": 1366,
      "##क": 1367,
      "##ʀ": 1368,
      "##̆": 1369,
      "##ز": 1370,
      "##ூ": 1371,
      "##ந": 1372,
      "##国": 1373,
      "##立": 1374,
      "##公": 1375,
      "##園": 1376,
      "##江": 1377,
      "##都": 1378,
      "##ੱ": 1379,
      "##ਖ": 1380,
      "##ਣ": 1381,
      "##♪": 1382,
      "##θ": 1383,
      "##酒": 1384,
      "##🙏": 1385,
      "##≤": 1386,
      "##ã": 1387,
      "##ے": 1388,
      "##山": 1389,
      "##ृ": 1390,
      "##ट": 1391,
      "##🏽": 1392,
      "##🔥": 1393,
      "##आ": 1394,
      "##گ": 1395,
      "##آ": 1396,
      "##ء": 1397,
      "##ٌ": 1398,
      "##ഊ": 1399,
      "##п": 1400,
      "##خ": 1401,
      "##̀": 1402,
      "##ⲛ": 1403,
      "##ł": 1404,
      "##ɡ": 1405,
      "##ʒ": 1406,
      "##城": 1407,
      "##ủ": 1408,
      "##ž": 1409,
      "##м": 1410,
      "##η": 1411,
      "##ொ": 1412,
      "##ö": 1413,
      "##भ": 1414,
      "##吳": 1415,
      "##ɯ": 1416,
      "##ɾ": 1417,
      "##ʁ": 1418,
      "##ۡ": 1419,
      "##ਟ": 1420,
      "##я": 1421,
      "##ब": 1422,
      "##ē": 1423,
      "##ো": 1424,
      "##ল": 1425,
      "##ध": 1426,
      "##ई": 1427,
      "##ʌ": 1428,
      "##أ": 1429,
      "##ü": 1430,
      "##ɨ": 1431,
      "##ï": 1432,
      "##ṅ": 1433,
      "##ṛ": 1434,
      "##ิ": 1435,
      "##²": 1436,
      "##স": 1437,
      "##জ": 1438,
      "##দ": 1439,
      "##ङ": 1440,
      "##ʎ": 1441,
      "##ಗ": 1442,
      "##ಜ": 1443,
      "##ೇ": 1444,
      "##ⲧ": 1445,
      "##ⲕ": 1446,
      "##ⲩ": 1447,
      "##ⲡ": 1448,
      "##ⲁ": 1449,
      "##ⲟ": 1450,
      "##ತ": 1451,
      "##ह": 1452,
      "##ò": 1453,
      "##ά": 1454,
      "##ী": 1455,
      "##ć": 1456,
      "##̅": 1457,
      "##³": 1458,
      "##♥": 1459,
      "##か": 1460,
      "##下": 1461,
      "##い": 1462,
      "##ਦ": 1463,
      "##ਰ": 1464,
      "##դ": 1465,
      "##ն": 1466,
      "##ի": 1467,
      "##ս": 1468,
      "##´": 1469,
      "##ܠ": 1470,
      "##ܐ": 1471,
      "##ٰ": 1472,
      "##ळ": 1473,
      "##神": 1474,
      "##木": 1475,
      "##ئ": 1476,
      "##শ": 1477,
      "##ற": 1478,
      "##ഋ": 1479,
      "##ਿ": 1480,
      "##ਮ": 1481,
      "##ข": 1482,
      "##า": 1483,
      "##ু": 1484,
      "##ড": 1485,
      "##্": 1486,
      "##ੀ": 1487,
      "##毫": 1488,
      "##ض": 1489,
      "##ğ": 1490,
      "##͡": 1491,
      "##京": 1492,
      "##̣": 1493,
      "##̪": 1494,
      "##£": 1495,
      "##۟": 1496,
      "##ಂ": 1497,
      "##ೆ": 1498,
      "##ṣ": 1499,
      "##ό": 1500,
      "##π": 1501,
      "##ç": 1502,
      "##イ": 1503,
      "##キ": 1504,
      "##ー": 1505,
      "##တ": 1506,
      "##်": 1507,
      "##ಟ": 1508,
      "##ದ": 1509,
      "##😀": 1510,
      "##ླ": 1511,
      "##ུ": 1512,
      "##ས": 1513,
      "##ಯ": 1514,
      "##ṇ": 1515,
      "##ḷ": 1516,
      "##°": 1517,
      "##τ": 1518,
      "##ω": 1519,
      "##ώ": 1520,
      "##̃": 1521,
      "##マ": 1522,
      "##ン": 1523,
      "##ト": 1524,
      "##थ": 1525,
      "##उ": 1526,
      "##ῖ": 1527,
      "##վ": 1528,
      "##պ": 1529,
      "##ô": 1530,
      "##ಬ": 1531,
      "##ⴰ": 1532,
      "##ⵣ": 1533,
      "##ⵉ": 1534,
      "##ⵜ": 1535,
      "##ေ": 1536,
      "##の": 1537,
      "##ф": 1538,
      "##ё": 1539,
      "##झ": 1540,
      "##қ": 1541,
      "##ⲥ": 1542,
      "##إ": 1543,
      "##ठ": 1544,
      "##ม": 1545,
      "##ู": 1546,
      "##่": 1547,
      "##เ": 1548,
      "##ก": 1549,
      "##ะ": 1550,
      "##ท": 1551,
      "##ล": 1552,
      "##ต": 1553,
      "##้": 1554,
      "##ˌ": 1555,
      "##è": 1556,
      "##ʰ": 1557,
      "##ǐ": 1558,
      "##ⲣ": 1559,
      "##ⲏ": 1560,
      "##ಲ": 1561,
      "##ბ": 1562,
      "##ე": 1563,
      "##ث": 1564,
      "##ਵ": 1565,
      "##ñ": 1566,
      "##ಹ": 1567,
      "##ʼ": 1568,
      "##হ": 1569,
      "##ত": 1570,
      "##ಕ": 1571,
      "##ว": 1572,
      "##ย": 1573,
      "##ั": 1574,
      "##น": 1575,
      "##ִ": 1576,
      "##צ": 1577,
      "##ְ": 1578,
      "##ח": 1579,
      "##ָ": 1580,
      "##ק": 1581,
      "##з": 1582,
      "##ු": 1583,
      "##ණ": 1584,
      "##щ": 1585,
      "##四": 1586,
      "##ù": 1587,
      "##👇": 1588,
      "##ъ": 1589,
      "##इ": 1590,
      "##ھ": 1591,
      "##ო": 1592,
      "##ვ": 1593,
      "##ნ": 1594,
      "##უ": 1595,
      "##ლ": 1596,
      "##ـ": 1597,
      "##麹": 1598,
      "##ⲉ": 1599,
      "##ܝ": 1600,
      "##ܣ": 1601,
      "##澤": 1602,
      "##ਗ": 1603,
      "##ਪ": 1604,
      "##ೀ": 1605,
      "##😅": 1606,
      "##ด": 1607,
      "##อ": 1608,
      "##č": 1609,
      "##ौ": 1610,
      "##田": 1611,
      "##β": 1612,
      "##ʾ": 1613,
      "##文": 1614,
      "##代": 1615,
      "##器": 1616,
      "##ک": 1617,
      "##ٹ": 1618,
      "##茶": 1619,
      "##ǎ": 1620,
      "##ר": 1621,
      "##ן": 1622,
      "##ۦ": 1623,
      "##پ": 1624,
      "##ೊ": 1625,
      "##ಮ": 1626,
      "##ು": 1627,
      "##ռ": 1628,
      "##ĩ": 1629,
      "##µ": 1630,
      "##®": 1631,
      "##ర": 1632,
      "##త": 1633,
      "##న": 1634,
      "##ం": 1635,
      "##絵": 1636,
      "##😄": 1637,
      "##ི": 1638,
      "##大": 1639,
      "##ḥ": 1640,
      "##ম": 1641,
      "##₂": 1642,
      "##ٱ": 1643,
      "##ਆ": 1644,
      "##ਲ": 1645,
      "##ɵ": 1646,
      "##ს": 1647,
      "##臺": 1648,
      "##😣": 1649,
      "##😭": 1650,
      "##ⲭ": 1651,
      "##ད": 1652,
      "##ხ": 1653,
      "##ร": 1654,
      "##บ": 1655,
      "##ส": 1656,
      "##จ": 1657,
      "##พ": 1658,
      "##ป": 1659,
      "##ห": 1660,
      "##ช": 1661,
      "##ุ": 1662,
      "##ธ": 1663,
      "##蘇": 1664,
      "##💞": 1665,
      "##ট": 1666,
      "##ಳ": 1667,
      "##χ": 1668,
      "##和": 1669,
      "##海": 1670,
      "##寿": 1671,
      "##司": 1672,
      "##ੁ": 1673,
      "##ှ": 1674,
      "##ရ": 1675,
      "##ာ": 1676,
      "##င": 1677,
      "##း": 1678,
      "##ă": 1679,
      "##ব": 1680,
      "##ք": 1681,
      "##ַ": 1682,
      "##ּ": 1683,
      "##ю": 1684,
      "##ð": 1685,
      "##ধ": 1686,
      "##ß": 1687,
      "##প": 1688,
      "##月": 1689,
      "##湯": 1690,
      "##台": 1691,
      "##ำ": 1692,
      "##ผ": 1693,
      "##本": 1694,
      "##̯": 1695,
      "##金": 1696,
      "##平": 1697,
      "##ב": 1698,
      "##ת": 1699,
      "##ҝ": 1700,
      "##ם": 1701,
      "##灣": 1702,
      "##ж": 1703,
      "##±": 1704,
      "##ń": 1705,
      "##ਹ": 1706,
      "##ง": 1707,
      "##ד": 1708,
      "##₹": 1709,
      "##ʉ": 1710,
      "##ద": 1711,
      "##𝙻": 1712,
      "##ṟ": 1713,
      "##̄": 1714,
      "##💪": 1715,
      "##ξ": 1716,
      "##ʻ": 1717,
      "##越": 1718,
      "##ਸ": 1719,
      "##ਕ": 1720,
      "##足": 1721,
      "##一": 1722,
      "##ම": 1723,
      "##נ": 1724,
      "##ס": 1725,
      "##🌹": 1726,
      "##फ": 1727,
      "##ǔ": 1728,
      "##ా": 1729,
      "##書": 1730,
      "##î": 1731,
      "##ۥ": 1732,
      "##ῆ": 1733,
      "##მ": 1734,
      "##出": 1735,
      "##蒔": 1736,
      "##ষ": 1737,
      "##ង": 1738,
      "##ា": 1739,
      "##ර": 1740,
      "##א": 1741,
      "##û": 1742,
      "##脚": 1743,
      "##ジ": 1744,
      "##カ": 1745,
      "##😂": 1746,
      "##物": 1747,
      "##ܘ": 1748,
      "##ढ": 1749,
      "##ี": 1750,
      "##😘": 1751,
      "##õ": 1752,
      "##ɣ": 1753,
      "##լ": 1754,
      "##化": 1755,
      "##ڈ": 1756,
      "##ø": 1757,
      "##之": 1758,
      "##൹": 1759,
      "##ক": 1760,
      "##ש": 1761,
      "##ਜ": 1762,
      "##ং": 1763,
      "##紙": 1764,
      "##青": 1765,
      "##ì": 1766,
      "##ル": 1767,
      "##ή": 1768,
      "##ζ": 1769,
      "##घ": 1770,
      "##မ": 1771,
      "##💙": 1772,
      "##ⲅ": 1773,
      "##し": 1774,
      "##南": 1775,
      "##ེ": 1776,
      "##ظ": 1777,
      "##𝘦": 1778,
      "##𝘳": 1779,
      "##→": 1780,
      "##利": 1781,
      "##ਬ": 1782,
      "##ś": 1783,
      "##ṃ": 1784,
      "##ؤ": 1785,
      "##̌": 1786,
      "##─": 1787,
      "##ʋ": 1788,
      "##ẻ": 1789,
      "##ए": 1790,
      "##ӏ": 1791,
      "##ě": 1792,
      "##🤗": 1793,
      "##ක": 1794,
      "##ճ": 1795,
      "##島": 1796,
      "##চ": 1797,
      "##ੋ": 1798,
      "##ạ": 1799,
      "##👉": 1800,
      "##小": 1801,
      "##ල": 1802,
      "##圓": 1803,
      "##😊": 1804,
      "##閣": 1805,
      "##แ": 1806,
      "##×": 1807,
      "##ע": 1808,
      "##ٔ": 1809,
      "##ḍ": 1810,
      "##ט": 1811,
      "##ア": 1812,
      "##ર": 1813,
      "##દ": 1814,
      "##😁": 1815,
      "##♂": 1816,
      "##酢": 1817,
      "##毛": 1818,
      "##โ": 1819,
      "##ค": 1820,
      "##ἠ": 1821,
      "##す": 1822,
      "##ਤ": 1823,
      "##光": 1824,
      "##º": 1825,
      "##ҡ": 1826,
      "##￼": 1827,
      "##ਘ": 1828,
      "##פ": 1829,
      "##ψ": 1830,
      "##כ": 1831,
      "##ϯ": 1832,
      "##米": 1833,
      "##©": 1834,
      "##𝐄": 1835,
      "##𝐑": 1836,
      "##𝐀": 1837,
      "##𝐋": 1838,
      "##長": 1839,
      "##手": 1840,
      "##弘": 1841,
      "##œ": 1842,
      "##😃": 1843,
      "##水": 1844,
      "##通": 1845,
      "##ܫ": 1846,
      "##ਛ": 1847,
      "##東": 1848,
      "##筆": 1849,
      "##≡": 1850,
      "##合": 1851,
      "##🏆": 1852,
      "##😉": 1853,
      "##◆": 1854,
      "##𝘁": 1855,
      "##𝗼": 1856,
      "##𝗿": 1857,
      "##𝘀": 1858,
      "##छ": 1859,
      "##ॐ": 1860,
      "##畫": 1861,
      "##𝐫": 1862,
      "##𝐢": 1863,
      "##𝐬": 1864,
      "##𝐡": 1865,
      "##𝐧": 1866,
      "##ὶ": 1867,
      "##😍": 1868,
      "##𝐣": 1869,
      "##𝐮": 1870,
      "##ന്": 1871,
      "##ക്": 1872,
      "##ത്": 1873,
      "##ക്ക": 1874,
      "##ന്ന": 1875,
      "##തി": 1876,
      "##്ട": 1877,
      "##ും": 1878,
      "##യി": 1879,
      "##്ര": 1880,
      "##്പ": 1881,
      "##്ച": 1882,
      "##്യ": 1883,
      "##സ്": 1884,
      "##ങ്": 1885,
      "##ുന്ന": 1886,
      "##ത്തി": 1887,
      "##മാ": 1888,
      "##രി": 1889,
      "##ല്": 1890,
      "##ട്ട": 1891,
      "##ച്ച": 1892,
      "##റ്": 1893,
      "##പ്പ": 1894,
      "##ത്ത": 1895,
      "##ണ്": 1896,
      "##ിയ": 1897,
      "##ങ്ങ": 1898,
      "##ണ്ട": 1899,
      "##ുക": 1900,
      "##ള്": 1901,
      "##ില": 1902,
      "##ുട": 1903,
      "##റ്റ": 1904,
      "പ്ര": 1905,
      "##ിക്ക": 1906,
      "വി": 1907,
      "##ാണ്": 1908,
      "##ിച്ച": 1909,
      "##രു": 1910,
      "##ല്ല": 1911,
      "##ാര": 1912,
      "##െയ": 1913,
      "##ാന": 1914,
      "##ിൽ": 1915,
      "##ന്റ": 1916,
      "##ര്": 1917,
      "##ള്ള": 1918,
      "##ായി": 1919,
      "##ക്ക്": 1920,
      "##ിക": 1921,
      "##ുടെ": 1922,
      "##ുന്നു": 1923,
      "##ായ": 1924,
      "സ്": 1925,
      "##വി": 1926,
      "##ന്റെ": 1927,
      "നി": 1928,
      "##ക്ഷ": 1929,
      "##ന്ന്": 1930,
      "##ടു": 1931,
      "##ാല": 1932,
      "##ദ്": 1933,
      "##ുള്ള": 1934,
      "##ത്ര": 1935,
      "##ങ്ങള": 1936,
      "##നി": 1937,
      "##ഞ്": 1938,
      "സം": 1939,
      "##ാർ": 1940,
      "പി": 1941,
      "എന്ന": 1942,
      "മു": 1943,
      "##പ്പെ": 1944,
      "##റി": 1945,
      "##വാ": 1946,
      "##ഞ്ഞ": 1947,
      "##ോട": 1948,
      "##െന്ന": 1949,
      "##യിൽ": 1950,
      "##സി": 1951,
      "##മായി": 1952,
      "##ാവ": 1953,
      "##രുന്നു": 1954,
      "##മ്പ": 1955,
      "##തു": 1956,
      "##ദേ": 1957,
      "##്മ": 1958,
      "ചെയ": 1959,
      "കേ": 1960,
      "##ടി": 1961,
      "##രിക്ക": 1962,
      "##േഷ": 1963,
      "##യില": 1964,
      "നട": 1965,
      "##ണം": 1966,
      "##ാൻ": 1967,
      "##ുണ്ട": 1968,
      "##ങ്ക": 1969,
      "##ില്ല": 1970,
      "സി": 1971,
      "##വര": 1972,
      "##യും": 1973,
      "##ാക്ക": 1974,
      "##ങ്ങൾ": 1975,
      "##നു": 1976,
      "##വർ": 1977,
      "##ത്തിൽ": 1978,
      "##ന്ത": 1979,
      "##ന്ത്": 1980,
      "മാ": 1981,
      "##്യാ": 1982,
      "##ുറ": 1983,
      "##സ്ഥ": 1984,
      "##നെ": 1985,
      "കോ": 1986,
      "##ത്ത്": 1987,
      "##ാം": 1988,
      "##മ്മ": 1989,
      "##നം": 1990,
      "##ന്ദ": 1991,
      "##ാട": 1992,
      "##മായ": 1993,
      "##റ്റ്": 1994,
      "##ത്തില": 1995,
      "ഒരു": 1996,
      "##ോഗ": 1997,
      "##െന്ന്": 1998,
      "##ുന്നത്": 1999,
      "##രാ": 2000,
      "##വും": 2001,
      "##മാണ്": 2002,
      "##ുകള": 2003,
      "##യാ": 2004,
      "##ദ്യ": 2005,
      "##ുമ": 2006,
      "പറ": 2007,
      "##രിച്ച": 2008,
      "##രം": 2009,
      "##ട്ടി": 2010,
      "രാ": 2011,
      "##ംഗ": 2012,
      "##ത്തെ": 2013,
      "തി": 2014,
      "##ിലെ": 2015,
      "##er": 2016,
      "##ിവ": 2017,
      "അവ": 2018,
      "##ിച്ചു": 2019,
      "##ലി": 2020,
      "##al": 2021,
      "നേ": 2022,
      "##ദ്ധ": 2023,
      "##ഡ്": 2024,
      "കാ": 2025,
      "പരി": 2026,
      "##കള": 2027,
      "കൊ": 2028,
      "##മി": 2029,
      "##ാഗ": 2030,
      "കെ": 2031,
      "##ദേശ": 2032,
      "##ജി": 2033,
      "കു": 2034,
      "##െടു": 2035,
      "സാ": 2036,
      "##ത്തിയ": 2037,
      "തുട": 2038,
      "##ുപ": 2039,
      "##യുടെ": 2040,
      "പു": 2041,
      "പോ": 2042,
      "##ഞ്ച": 2043,
      "പേ": 2044,
      "##ന്ധ": 2045,
      "##നാ": 2046,
      "##ഴി": 2047,
      "##ട്ട്": 2048,
      "പൊ": 2049,
      "പ്രതി": 2050,
      "##റ്റി": 2051,
      "##രെ": 2052,
      "##ായിരുന്നു": 2053,
      "##പ്പോ": 2054,
      "##െയും": 2055,
      "##oc": 2056,
      "സമ": 2057,
      "ചെയ്": 2058,
      "##ik": 2059,
      "##ീക": 2060,
      "കൂ": 2061,
      "##െന്നും": 2062,
      "##യം": 2063,
      "##le": 2064,
      "##ri": 2065,
      "സ്ഥ": 2066,
      "##ിച്ച്": 2067,
      "##കു": 2068,
      "##ുവ": 2069,
      "എം": 2070,
      "##ണ്ട്": 2071,
      "##ുകൾ": 2072,
      "##an": 2073,
      "വെ": 2074,
      "##ൂർ": 2075,
      "##ുണ്ട്": 2076,
      "വാ": 2077,
      "##ൽക": 2078,
      "##ലീ": 2079,
      "##വ്": 2080,
      "##ികള": 2081,
      "##ന്ത്രി": 2082,
      "##iki": 2083,
      "wiki": 2084,
      "##സ്ഥാന": 2085,
      "##ിലും": 2086,
      "##ർക്ക": 2087,
      "doc": 2088,
      "##കൾ": 2089,
      "സ്വ": 2090,
      "##ത്തിന്റെ": 2091,
      "##ശ്": 2092,
      "##ണി": 2093,
      "വീ": 2094,
      "##ടെ": 2095,
      "##ാമ": 2096,
      "സെ": 2097,
      "##രുന്ന": 2098,
      "നൽക": 2099,
      "##സം": 2100,
      "##ത്യ": 2101,
      "##ക്ര": 2102,
      "##പ്ര": 2103,
      "##പ്പെട്ട": 2104,
      "##ജ്": 2105,
      "##on": 2106,
      "##ാത": 2107,
      "എസ്": 2108,
      "ചെയ്യ": 2109,
      "##ക്കി": 2110,
      "##ന്ദ്ര": 2111,
      "##യ്": 2112,
      "##ti": 2113,
      "##ാന്": 2114,
      "ബി": 2115,
      "##രണ": 2116,
      "##ഫ്": 2117,
      "##പ്പ്": 2118,
      "##ളി": 2119,
      "##ുകയ": 2120,
      "##റിയ": 2121,
      "##സ്റ്റ": 2122,
      "##്യമ": 2123,
      "##പ്": 2124,
      "##ാക": 2125,
      "##ത്തിന്": 2126,
      "##ala": 2127,
      "##ഷ്ട": 2128,
      "##േക്ക്": 2129,
      "##ദേഹ": 2130,
      "ഡി": 2131,
      "##വന": 2132,
      "##രള": 2133,
      "പറഞ്ഞ": 2134,
      "നിർ": 2135,
      "##ാര്യ": 2136,
      "##ed": 2137,
      "##ിക്കുന്ന": 2138,
      "##ഷ്": 2139,
      "##ങ്ങള്": 2140,
      "##it": 2141,
      "##േശ": 2142,
      "##ബ്": 2143,
      "##ിട്ട": 2144,
      "##ൂപ": 2145,
      "##ാൽ": 2146,
      "##യിലെ": 2147,
      "വേ": 2148,
      "അതി": 2149,
      "തീ": 2150,
      "##es": 2151,
      "##ാപ": 2152,
      "##െങ്ക": 2153,
      "##ക്കും": 2154,
      "##ത്തു": 2155,
      "കേരള": 2156,
      "##ില്": 2157,
      "##ന്നു": 2158,
      "##ാട്": 2159,
      "##േഖ": 2160,
      "മല": 2161,
      "##ധി": 2162,
      "##ുകയും": 2163,
      "സു": 2164,
      "##ദ്ദേഹ": 2165,
      "നിയ": 2166,
      "ക്": 2167,
      "##യില്": 2168,
      "##ാരം": 2169,
      "##തിയ": 2170,
      "##്രീ": 2171,
      "വ്യ": 2172,
      "##ക്ത": 2173,
      "##ിന": 2174,
      "##ക്കുന്ന": 2175,
      "##ണമ": 2176,
      "##ോധ": 2177,
      "##ുമായി": 2178,
      "അനു": 2179,
      "നില": 2180,
      "തെ": 2181,
      "ഉപ": 2182,
      "പൊലീ": 2183,
      "മൂ": 2184,
      "കോട": 2185,
      "##ധാന": 2186,
      "മുഖ": 2187,
      "തിരു": 2188,
      "##പു": 2189,
      "##ികൾ": 2190,
      "രാജ": 2191,
      "രൂപ": 2192,
      "സംസ്ഥാന": 2193,
      "##ത്തില്": 2194,
      "##ോ": 2195,
      "അദ്ദേഹ": 2196,
      "##ഴ്": 2197,
      "##ത്രി": 2198,
      "##ോട്": 2199,
      "##ന്നെ": 2200,
      "##നും": 2201,
      "##ഭവ": 2202,
      "##ന്ത്യ": 2203,
      "##ഗ്ര": 2204,
      "##ിയുടെ": 2205,
      "##ണ്ണ": 2206,
      "##rl": 2207,
      "മെ": 2208,
      "##ാര്": 2209,
      "പെ": 2210,
      "##ലാ": 2211,
      "##പി": 2212,
      "##പ്പെട": 2213,
      "##പ്പെടു": 2214,
      "##tion": 2215,
      "##മു": 2216,
      "##ia": 2217,
      "ജന": 2218,
      "##ക്ട": 2219,
      "##tt": 2220,
      "കണ്ട": 2221,
      "##ോട്ട": 2222,
      "##ശ്യ": 2223,
      "##മാന": 2224,
      "##ക്കു": 2225,
      "##ഴ്ച": 2226,
      "നാ": 2227,
      "ചി": 2228,
      "##്യാപ": 2229,
      "##ടിയ": 2230,
      "ലഭ": 2231,
      "യു": 2232,
      "##ha": 2233,
      "നേത": 2234,
      "പറഞ്ഞു": 2235,
      "##സാ": 2236,
      "ഇന്ത്യ": 2237,
      "##െയാണ്": 2238,
      "ജീ": 2239,
      "ചെ": 2240,
      "അധ": 2241,
      "ഇതി": 2242,
      "##ിപ്പ": 2243,
      "##ic": 2244,
      "##ിന്റെ": 2245,
      "വൈ": 2246,
      "##വേ": 2247,
      "ആശ": 2248,
      "##ച്ചു": 2249,
      "##ളം": 2250,
      "##ാണ": 2251,
      "##കര": 2252,
      "ജില്ല": 2253,
      "##്യൂ": 2254,
      "##തൽ": 2255,
      "വർ": 2256,
      "##മേ": 2257,
      "##ന്നും": 2258,
      "സംഘ": 2259,
      "ആർ": 2260,
      "പരാ": 2261,
      "സർക്ക": 2262,
      "##യെ": 2263,
      "നീ": 2264,
      "##ലം": 2265,
      "##ാത്ത": 2266,
      "##ത്തിലെ": 2267,
      "സഹ": 2268,
      "പരിശ": 2269,
      "##ps": 2270,
      "##വേഷ": 2271,
      "ആര": 2272,
      "##ത്സ": 2273,
      "നിയമ": 2274,
      "htt": 2275,
      "ബാ": 2276,
      "##rg": 2277,
      "##rid": 2278,
      "https": 2279,
      "##ാരി": 2280,
      "##ീയ": 2281,
      "ജോ": 2282,
      "org": 2283,
      "##em": 2284,
      "cu": 2285,
      "id": 2286,
      "ആവ": 2287,
      "പുറ": 2288,
      "##edia": 2289,
      "കേന്ദ്ര": 2290,
      "##pedia": 2291,
      "wikipedia": 2292,
      "url": 2293,
      "ml": 2294,
      "##ിത": 2295,
      "##സ്ത": 2296,
      "##ന്റ്": 2297,
      "##രീ": 2298,
      "tit": 2299,
      "title": 2300,
      "curid": 2301,
      "##ങ്ങിയ": 2302,
      "ക്ര": 2303,
      "##hi": 2304,
      "##ോക": 2305,
      "##സ്റ്റ്": 2306,
      "ദേശ": 2307,
      "##ങ്ങളിൽ": 2308,
      "പറയ": 2309,
      "ശ്ര": 2310,
      "രണ്ട": 2311,
      "കാല": 2312,
      "##ച്ച്": 2313,
      "##ോടെ": 2314,
      "പൊലീസ്": 2315,
      "##്യം": 2316,
      "ne": 2317,
      "##ത്രം": 2318,
      "##രിച്ചു": 2319,
      "ഉണ്ട": 2320,
      "##ഭി": 2321,
      "##ിയും": 2322,
      "ടി": 2323,
      "##ച്ചി": 2324,
      "എല്ല": 2325,
      "പ്രവർ": 2326,
      "##ങ്ങളുടെ": 2327,
      "അത": 2328,
      "##ഴിഞ്ഞ": 2329,
      "എന്നി": 2330,
      "##ra": 2331,
      "അന്": 2332,
      "##ാക്കി": 2333,
      "##ഡി": 2334,
      "മന്ത്രി": 2335,
      "##ദി": 2336,
      "##േണ്ട": 2337,
      "##റിയി": 2338,
      "##ത്വ": 2339,
      "##ൊരു": 2340,
      "##ിച്ചത്": 2341,
      "##ടക്ക": 2342,
      "കുറ": 2343,
      "##ന്തപു": 2344,
      "##തം": 2345,
      "##ങ്ങളും": 2346,
      "##ുന്നതി": 2347,
      "##ഴു": 2348,
      "##ation": 2349,
      "കാണ": 2350,
      "പാ": 2351,
      "ന്": 2352,
      "##യോഗ": 2353,
      "അപ": 2354,
      "തിരുവന": 2355,
      "##ാതെ": 2356,
      "കൈ": 2357,
      "തിരുവനന്തപു": 2358,
      "സ്റ്റ": 2359,
      "##േറ്റ": 2360,
      "ഇട": 2361,
      "##erala": 2362,
      "റി": 2363,
      "##സിൽ": 2364,
      "സംഭവ": 2365,
      "അദ്ദേഹം": 2366,
      "##ക്കെ": 2367,
      "##വര്": 2368,
      "##യാണ്": 2369,
      "##ങ്ങി": 2370,
      "##or": 2371,
      "ചേ": 2372,
      "കി": 2373,
      "ലക്ഷ": 2374,
      "##ക്രമ": 2375,
      "പ്രധാന": 2376,
      "ബന്ധ": 2377,
      "യാ": 2378,
      "##ബന്ധ": 2379,
      "##en": 2380,
      "ഇത്": 2381,
      "ആവശ്യ": 2382,
      "##ഷ്യ": 2383,
      "kerala": 2384,
      "##ിന്": 2385,
      "##തിരെ": 2386,
      "##കൂ": 2387,
      "പിന്ന": 2388,
      "##ഗ്": 2389,
      "##ിച്ചി": 2390,
      "മോ": 2391,
      "ചെയ്തു": 2392,
      "##വരെ": 2393,
      "##മാര": 2394,
      "##ല്ക": 2395,
      "##നോ": 2396,
      "ചെയ്ത": 2397,
      "ആദ്യ": 2398,
      "##െങ്കിലും": 2399,
      "കോള": 2400,
      "##നായി": 2401,
      "new": 2402,
      "പ്രക": 2403,
      "##യാള": 2404,
      "news": 2405,
      "##ലിയ": 2406,
      "സാധ": 2407,
      "പരിശോധ": 2408,
      "നിര": 2409,
      "##റെ": 2410,
      "##നിന്ന്": 2411,
      "ഗ്ര": 2412,
      "##ഷേ": 2413,
      "അന്വേഷ": 2414,
      "##വരുടെ": 2415,
      "##മാണ": 2416,
      "നടപ": 2417,
      "##ാരണ": 2418,
      "##താണ്": 2419,
      "കൂടു": 2420,
      "തിരുവനന്തപുരം": 2421,
      "##ോർ": 2422,
      "സർ": 2423,
      "നല്ക": 2424,
      "നടത്ത": 2425,
      "വാർ": 2426,
      "##ലെ": 2427,
      "കൃ": 2428,
      "##ാറ": 2429,
      "പരാതി": 2430,
      "##േഷം": 2431,
      "കുട": 2432,
      "മറ്റ": 2433,
      "ഗു": 2434,
      "##ഭാഗ": 2435,
      "കല": 2436,
      "ഭാഗ": 2437,
      "##ുപത്രി": 2438,
      "മേ": 2439,
      "##ോപ": 2440,
      "കഴിഞ്ഞ": 2441,
      "##ത്തര": 2442,
      "##ac": 2443,
      "##ാവ്": 2444,
      "##കം": 2445,
      "തുടർ": 2446,
      "##േഷൻ": 2447,
      "പദ്ധ": 2448,
      "ആശുപത്രി": 2449,
      "##ട്": 2450,
      "ഏറ്റ": 2451,
      "##യർ": 2452,
      "##ാനും": 2453,
      "##ാല്": 2454,
      "നിന്ന്": 2455,
      "കട": 2456,
      "##്യമന്ത്രി": 2457,
      "അംഗ": 2458,
      "ടെ": 2459,
      "ദിവ": 2460,
      "##മാർ": 2461,
      "പ്രസി": 2462,
      "വില": 2463,
      "##ിക്കൽ": 2464,
      "##ൃത": 2465,
      "##ിയെ": 2466,
      "##ണ്ടി": 2467,
      "##ിക്കുന്നു": 2468,
      "##രഞ്ഞ": 2469,
      "ഡോ": 2470,
      "വിജ": 2471,
      "##ol": 2472,
      "##ര്യ": 2473,
      "തന്നെ": 2474,
      "##ീസ്": 2475,
      "ട്ര": 2476,
      "മുൻ": 2477,
      "എന്നിവ": 2478,
      "കണ്ടെ": 2479,
      "in": 2480,
      "##ാവി": 2481,
      "അറ": 2482,
      "അത്": 2483,
      "സ്ഥാപ": 2484,
      "##ർശ": 2485,
      "അറിയി": 2486,
      "##യിട്ട": 2487,
      "##വാസ": 2488,
      "പദ്ധതി": 2489,
      "##ുകൊ": 2490,
      "എന്നാൽ": 2491,
      "തൊ": 2492,
      "##ാർഥ": 2493,
      "##െന്നാണ്": 2494,
      "കഴ": 2495,
      "ഭൂ": 2496,
      "##ക്രട്ട": 2497,
      "##കർ": 2498,
      "##ക്തി": 2499,
      "##ാസ്": 2500,
      "##ുകയാണ്": 2501,
      "നെ": 2502,
      "റോ": 2503,
      "##രേ": 2504,
      "##രഞ്ഞെടു": 2505,
      "സെക്രട്ട": 2506,
      "മുഖ്യമന്ത്രി": 2507,
      "##രിയ": 2508,
      "മുന്ന": 2509,
      "##ഹി": 2510,
      "##ക്കാര": 2511,
      "നടത്തിയ": 2512,
      "##റു": 2513,
      "##നിൽ": 2514,
      "##om": 2515,
      "##ങ്ങളെ": 2516,
      "വിദ": 2517,
      "ഉപയോഗ": 2518,
      "ജി": 2519,
      "കോടതി": 2520,
      "##രണം": 2521,
      "പ്രവർത്ത": 2522,
      "സർക്കാർ": 2523,
      "##ടുത്ത": 2524,
      "പങ്ക": 2525,
      "##വിധ": 2526,
      "വിശ": 2527,
      "##ലും": 2528,
      "##ബി": 2529,
      "##ിക്കും": 2530,
      "##കാ": 2531,
      "മെഡ": 2532,
      "##മുള്ള": 2533,
      "##മ്പോ": 2534,
      "##ീഷ": 2535,
      "##സഭ": 2536,
      "ജെ": 2537,
      "##സ്ക": 2538,
      "വർഷ": 2539,
      "വള": 2540,
      "ദു": 2541,
      "ചോ": 2542,
      "സൂ": 2543,
      "us": 2544,
      "##മെ": 2545,
      "##ുകയായിരുന്നു": 2546,
      "വിദ്യ": 2547,
      "##സ്സ": 2548,
      "യൂ": 2549,
      "തോ": 2550,
      "##നായ": 2551,
      "##ജീ": 2552,
      "##ാഴ്ച": 2553,
      "##ീകരിക്ക": 2554,
      "##തും": 2555,
      "##രക്ഷ": 2556,
      "##്ല": 2557,
      "##ഞ്ച്": 2558,
      "വാർത്ത": 2559,
      "വയ": 2560,
      "കാര്യ": 2561,
      "##ീപ": 2562,
      "##st": 2563,
      "##ഫി": 2564,
      "പാർ": 2565,
      "##ദേശം": 2566,
      "##േരി": 2567,
      "##ിക്കാൻ": 2568,
      "എൻ": 2569,
      "##ty": 2570,
      "##ാനുള്ള": 2571,
      "##യിരുന്നു": 2572,
      "യാത്ര": 2573,
      "മാത്ര": 2574,
      "##les": 2575,
      "##ന്ത്ര": 2576,
      "വകു": 2577,
      "##ൂര്": 2578,
      "##തല": 2579,
      "പല": 2580,
      "##ീറ്റ": 2581,
      "പാല": 2582,
      "##ss": 2583,
      "##in": 2584,
      "##കള്": 2585,
      "ഉൾ": 2586,
      "##പ്പുറ": 2587,
      "പര": 2588,
      "##സ്പ": 2589,
      "##പ്പോൾ": 2590,
      "##രും": 2591,
      "അധിക": 2592,
      "##നിമ": 2593,
      "##്ട്ര": 2594,
      "##ുടെയും": 2595,
      "##യു": 2596,
      "രോഗ": 2597,
      "##ോഷ": 2598,
      "ചിത്ര": 2599,
      "##ar": 2600,
      "##ിലേക്ക്": 2601,
      "ഇത": 2602,
      "##ര്ക്ക": 2603,
      "##ഴിക്ക": 2604,
      "##ur": 2605,
      "##്പ്പ": 2606,
      "##തീ": 2607,
      "ഒന്ന": 2608,
      "നൽകി": 2609,
      "##ുംബ": 2610,
      "##വിടെ": 2611,
      "കുട്ട": 2612,
      "##ായിരുന്ന": 2613,
      "വാഹ": 2614,
      "##at": 2615,
      "കേസ": 2616,
      "##ക്ഷേ": 2617,
      "##ഭ്യാ": 2618,
      "പ്രവ": 2619,
      "##ap": 2620,
      "വ്യാപ": 2621,
      "##ിയത്": 2622,
      "##ൻസ്": 2623,
      "##ിക്കുന്നത്": 2624,
      "തീരു": 2625,
      "വ്യക്ത": 2626,
      "##രീക്ഷ": 2627,
      "##ദ്ദ": 2628,
      "കോൺ": 2629,
      "കണ്ണ": 2630,
      "##ാരാ": 2631,
      "##രിൽ": 2632,
      "കൂടുതൽ": 2633,
      "##േഖല": 2634,
      "##ൂടെ": 2635,
      "##ുകളിൽ": 2636,
      "##ംബ": 2637,
      "##േക്ക": 2638,
      "##നിയ": 2639,
      "##ത്ഥ": 2640,
      "##്യാഭ്യാ": 2641,
      "##os": 2642,
      "സ്കൂ": 2643,
      "##ഷി": 2644,
      "റെ": 2645,
      "ഉത്തര": 2646,
      "ഹൈ": 2647,
      "പഠ": 2648,
      "മന": 2649,
      "വിവര": 2650,
      "വെള്ള": 2651,
      "##ക്കാൻ": 2652,
      "##സ്ട്ര": 2653,
      "തുടങ്ങിയ": 2654,
      "##മാനം": 2655,
      "##യ്ക്ക്": 2656,
      "##ാദ": 2657,
      "വലിയ": 2658,
      "##തായി": 2659,
      "##വിൽ": 2660,
      "പതി": 2661,
      "##പ്പം": 2662,
      "##ുകള്": 2663,
      "സ്ത്ര": 2664,
      "##രുത": 2665,
      "##ഷ്ണ": 2666,
      "അല്ല": 2667,
      "##ടന": 2668,
      "##ന്നി": 2669,
      "കമ്മ": 2670,
      "##പ്പു": 2671,
      "റിപ്പോ": 2672,
      "അടി": 2673,
      "ചില": 2674,
      "മലയാള": 2675,
      "##ക്കം": 2676,
      "വീട്ട": 2677,
      "##വിട": 2678,
      "എഫ്": 2679,
      "##യില്ല": 2680,
      "##ീവ്": 2681,
      "മറ": 2682,
      "മി": 2683,
      "##നങ്ങൾ": 2684,
      "##പക്ഷ": 2685,
      "##സർ": 2686,
      "##ാള": 2687,
      "രണ്ട്": 2688,
      "##പ്പെടുത്ത": 2689,
      "##ണ്ഡ": 2690,
      "##ംഗ്": 2691,
      "##െയ്": 2692,
      "നേതൃ": 2693,
      "##രിക": 2694,
      "##ീകരിച്ച": 2695,
      "##ങ്ങനെ": 2696,
      "മെഡിക്കൽ": 2697,
      "സിനിമ": 2698,
      "പ്രസിഡ": 2699,
      "##പ്പെട്ടു": 2700,
      "അന": 2701,
      "സ്ഥി": 2702,
      "##ഹു": 2703,
      "##ഗ്രസ്": 2704,
      "##രംഭ": 2705,
      "മുതൽ": 2706,
      "ശ്രമ": 2707,
      "തൃ": 2708,
      "##ബ്ദ": 2709,
      "##യായ": 2710,
      "ബ്ര": 2711,
      "##ay": 2712,
      "##മാക്കി": 2713,
      "തട": 2714,
      "##ുകളും": 2715,
      "##ൂഹ": 2716,
      "കോഴിക്ക": 2717,
      "വരെ": 2718,
      "സൗ": 2719,
      "##യിലേക്ക്": 2720,
      "രാജ്യ": 2721,
      "വിദ്യാഭ്യാ": 2722,
      "അവസ": 2723,
      "##വീ": 2724,
      "തല": 2725,
      "##ter": 2726,
      "##ിച്ചിട്ട": 2727,
      "ലോക": 2728,
      "##ധ്യമ": 2729,
      "പുതിയ": 2730,
      "##ub": 2731,
      "##േക്ഷ": 2732,
      "എൽ": 2733,
      "എല്ലാ": 2734,
      "##ാഷ": 2735,
      "സ്ഥാന": 2736,
      "നേതൃത്വ": 2737,
      "##ിലാണ്": 2738,
      "##വാദ": 2739,
      "പ്രത്യ": 2740,
      "വര": 2741,
      "രാഷ്ട": 2742,
      "##ഡിയ": 2743,
      "ar": 2744,
      "അവർ": 2745,
      "##ോള": 2746,
      "ശി": 2747,
      "സെക്രട്ടറി": 2748,
      "##െയുള്ള": 2749,
      "##ന്തു": 2750,
      "എന്ന്": 2751,
      "thi": 2752,
      "സംബന്ധ": 2753,
      "##്യത": 2754,
      "##വെ": 2755,
      "കർ": 2756,
      "മലപ്പുറ": 2757,
      "##ണാ": 2758,
      "##മാക്ക": 2759,
      "നടന്ന": 2760,
      "ശ്രീ": 2761,
      "##ട്ടു": 2762,
      "##വക": 2763,
      "പൂർ": 2764,
      "##മുണ്ട": 2765,
      "##പ്പി": 2766,
      "ആണ്": 2767,
      "മത്സ": 2768,
      "രജി": 2769,
      "ഏറ്റവും": 2770,
      "##ലൈ": 2771,
      "മഹ": 2772,
      "മാറ്റ": 2773,
      "##തിര": 2774,
      "അട": 2775,
      "##ാസ": 2776,
      "കാർ": 2777,
      "##യോ": 2778,
      "കൊണ്ട": 2779,
      "സന്ദ": 2780,
      "യോഗ": 2781,
      "##മാക": 2782,
      "##ത്തിന": 2783,
      "വിഷ": 2784,
      "ഉദ്യ": 2785,
      "ഇതു": 2786,
      "##വിത": 2787,
      "സ്വാ": 2788,
      "##ടിപ്പ": 2789,
      "##നേ": 2790,
      "##tyles": 2791,
      "പിട": 2792,
      "നിന്നും": 2793,
      "##മതി": 2794,
      "##ഷേധ": 2795,
      "മാർ": 2796,
      "##ർച്ച": 2797,
      "നടത്തി": 2798,
      "##ക്കള": 2799,
      "ശേഷം": 2800,
      "തുടർന്ന്": 2801,
      "പേര്": 2802,
      "പഞ്ച": 2803,
      "പട്ട": 2804,
      "##ത്തിലാണ്": 2805,
      "##റിൽ": 2806,
      "വാർത്തകൾ": 2807,
      "തെരഞ്ഞെടു": 2808,
      "##തിന്": 2809,
      "അഭി": 2810,
      "##ിയാണ്": 2811,
      "##വദ": 2812,
      "##സിന്റെ": 2813,
      "##െങ്കിൽ": 2814,
      "##ർത്ത": 2815,
      "##ത്തിനു": 2816,
      "പേര": 2817,
      "സേ": 2818,
      "ഇറ": 2819,
      "സ്പ": 2820,
      "കാര": 2821,
      "##ശാല": 2822,
      "കോടി": 2823,
      "##മ്പ്": 2824,
      "##രിക്കുന്ന": 2825,
      "##ജ്ഞ": 2826,
      "മേഖല": 2827,
      "സമീപ": 2828,
      "കുടുംബ": 2829,
      "നഗ": 2830,
      "വിള": 2831,
      "താ": 2832,
      "കോഴിക്കോട്": 2833,
      "##സമ": 2834,
      "##ള്ളി": 2835,
      "##്ട്ട": 2836,
      "##ുമായ": 2837,
      "##കാശ": 2838,
      "ആല": 2839,
      "mala": 2840,
      "##ല്ലാം": 2841,
      "ലോ": 2842,
      "കൊല്ല": 2843,
      "ഉറ": 2844,
      "##ന്യ": 2845,
      "വിഭാഗ": 2846,
      "##രിക്കുന്നത്": 2847,
      "എത്തി": 2848,
      "##alam": 2849,
      "##ational": 2850,
      "##മോ": 2851,
      "th": 2852,
      "##ൽപ്പ": 2853,
      "സ്വദേശ": 2854,
      "മാന": 2855,
      "##യിലാണ്": 2856,
      "##സിപ്പ": 2857,
      "malay": 2858,
      "ഭരണ": 2859,
      "malayalam": 2860,
      "സ്ത്രീ": 2861,
      "##വധി": 2862,
      "##േക": 2863,
      "നോ": 2864,
      "##െടുത്ത": 2865,
      "##ത്മ": 2866,
      "##െൻ": 2867,
      "##നാൽ": 2868,
      "##രിപ്പ": 2869,
      "രക്ഷ": 2870,
      "ആരംഭ": 2871,
      "പരിശോധന": 2872,
      "പിന്നീ": 2873,
      "കൂട്ട": 2874,
      "##ികള്": 2875,
      "##ടിച്ച്": 2876,
      "പൊതു": 2877,
      "##ണമെന്ന്": 2878,
      "നൂ": 2879,
      "##ന്തം": 2880,
      "##താ": 2881,
      "##പ്പോഴ": 2882,
      "##കട": 2883,
      "##കാര്യ": 2884,
      "ഫോ": 2885,
      "##മാനി": 2886,
      "##ശ്ശ": 2887,
      "തിരിച്ച": 2888,
      "നിര്": 2889,
      "എന്ത": 2890,
      "##ികളുടെ": 2891,
      "##ശ്ച": 2892,
      "##ാഭി": 2893,
      "##ക്കുറ": 2894,
      "ലൈ": 2895,
      "##tha": 2896,
      "##യായി": 2897,
      "##രിക്കുന്നു": 2898,
      "##കളിൽ": 2899,
      "##ക്ടർ": 2900,
      "##ബു": 2901,
      "##ത്തും": 2902,
      "##ാടി": 2903,
      "വിശ്": 2904,
      "##ിക്കു": 2905,
      "##ുള്ളത്": 2906,
      "വന്ന": 2907,
      "##oo": 2908,
      "##വാഹ": 2909,
      "##പോ": 2910,
      "##ുമെന്ന്": 2911,
      "കണ": 2912,
      "##റായി": 2913,
      "##ികി": 2914,
      "##ധിക": 2915,
      "നൽകിയ": 2916,
      "##പ്പെടുത്തി": 2917,
      "##ഗണ": 2918,
      "##രമ": 2919,
      "##ef": 2920,
      "##ത്തിയത്": 2921,
      "വിവിധ": 2922,
      "##ോടതി": 2923,
      "തീരുമാന": 2924,
      "ഗോ": 2925,
      "അഭ": 2926,
      "##യിലും": 2927,
      "##റും": 2928,
      "##ോഗ": 2929,
      "ദേശീയ": 2930,
      "##ക്യ": 2931,
      "രാഷ്ട്രീ": 2932,
      "##ുമാണ്": 2933,
      "##ക്കൊ": 2934,
      "റിപ്പോർ": 2935,
      "ദേശാഭി": 2936,
      "ചൂ": 2937,
      "പ്രവേശ": 2938,
      "കമ്പ": 2939,
      "സംഗ": 2940,
      "##േജ്": 2941,
      "കള": 2942,
      "##കളും": 2943,
      "##ോട്ട്": 2944,
      "##as": 2945,
      "പൂ": 2946,
      "##ിക്കുകയും": 2947,
      "##ാക്കിയ": 2948,
      "##സ്റ്റി": 2949,
      "##ാനം": 2950,
      "ദേശാഭിമാനി": 2951,
      "##മായിരുന്നു": 2952,
      "##us": 2953,
      "##ത്തേ": 2954,
      "വിദ്യാർഥ": 2955,
      "മാധ്യമ": 2956,
      "##ട്ര": 2957,
      "സൈ": 2958,
      "നാല": 2959,
      "ബു": 2960,
      "##ാനി": 2961,
      "നടപടി": 2962,
      "ഇരു": 2963,
      "##ാതി": 2964,
      "നിന്ന": 2965,
      "##ാജ": 2966,
      "ലി": 2967,
      "##ദ്ര": 2968,
      "ചെയ്തി": 2969,
      "പുതു": 2970,
      "##കാല": 2971,
      "##യറ": 2972,
      "##വുമായി": 2973,
      "##െടുക്ക": 2974,
      "##േഷ്": 2975,
      "മൊ": 2976,
      "##യ്ക്ക": 2977,
      "ഇവ": 2978,
      "നാട്ട": 2979,
      "##ുകാര": 2980,
      "ആക്രമ": 2981,
      "ദേ": 2982,
      "##ഴില": 2983,
      "കുറ്റ": 2984,
      "##ook": 2985,
      "സത്യ": 2986,
      "##ൽപ": 2987,
      "കമ": 2988,
      "##ണ്ടും": 2989,
      "##ഞ്ഞു": 2990,
      "കമ്മി": 2991,
      "വിക": 2992,
      "പിന്നീട്": 2993,
      "രേഖ": 2994,
      "തേ": 2995,
      "##ങ്ങൾക്ക്": 2996,
      "##op": 2997,
      "ഉട": 2998,
      "വായ": 2999,
      "ഇല്ല": 3000,
      "അറിയ": 3001,
      "##ഷൻ": 3002,
      "പോക": 3003,
      "പേർ": 3004,
      "##വം": 3005,
      "##ചന": 3006,
      "##ts": 3007,
      "##ാവസ്ഥ": 3008,
      "ദിവസ": 3009,
      "##മന്ത്രി": 3010,
      "ലെ": 3011,
      "##ർപ്പ": 3012,
      "##കളുടെ": 3013,
      "##നെതിരെ": 3014,
      "##യാണ": 3015,
      "ജയ": 3016,
      "സ്ഥല": 3017,
      "ആരോപ": 3018,
      "സീ": 3019,
      "സാഹ": 3020,
      "##ശേഷ": 3021,
      "##രിക്കും": 3022,
      "##രോ": 3023,
      "പ്രത്യേക": 3024,
      "##ുതി": 3025,
      "##ഹമ്മ": 3026,
      "കൂട": 3027,
      "##പെ": 3028,
      "അറിയിച്ചു": 3029,
      "ചേർ": 3030,
      "##കരണ": 3031,
      "രാഷ്ട്രീയ": 3032,
      "##ായത്": 3033,
      "തന്റെ": 3034,
      "ജീവന": 3035,
      "ചികി": 3036,
      "നമ്പ": 3037,
      "വിജയ": 3038,
      "തിര": 3039,
      "##േറ്റ്": 3040,
      "##ത്രമാണ്": 3041,
      "അവര്": 3042,
      "വരു": 3043,
      "##ണിയ": 3044,
      "##ക്സ്": 3045,
      "##എസ്": 3046,
      "ജീവ": 3047,
      "ശത": 3048,
      "അനുവദ": 3049,
      "##റോ": 3050,
      "##നാട്": 3051,
      "ഓഫി": 3052,
      "ബെ": 3053,
      "##ീതി": 3054,
      "സോ": 3055,
      "##ഞ്ഞ്": 3056,
      "##ിൻ": 3057,
      "ഇൻ": 3058,
      "പ്രാ": 3059,
      "##മ്പോൾ": 3060,
      "മൂന്ന": 3061,
      "##ലക്ഷ": 3062,
      "##ബർ": 3063,
      "അക്ക": 3064,
      "അയ": 3065,
      "##od": 3066,
      "##ന്തര": 3067,
      "സര്ക്ക": 3068,
      "വ്യാ": 3069,
      "നഗര": 3070,
      "##ul": 3071,
      "മനു": 3072,
      "##ram": 3073,
      "##പ്പെട്ട്": 3074,
      "എഴു": 3075,
      "പരീക്ഷ": 3076,
      "##ങ്ങളില": 3077,
      "##വിധാന": 3078,
      "പറയുന്നു": 3079,
      "കോട്ട": 3080,
      "##വസ": 3081,
      "##ജു": 3082,
      "വഴി": 3083,
      "##മല്ല": 3084,
      "പ്രദേശ": 3085,
      "##ികളെ": 3086,
      "കോൺഗ്രസ്": 3087,
      "##ന്റെയും": 3088,
      "##ve": 3089,
      "##മാൻ": 3090,
      "##ഹ്": 3091,
      "പ്രകാരം": 3092,
      "##ൂരി": 3093,
      "##ക്സ": 3094,
      "രണ്ടു": 3095,
      "ഉദ്": 3096,
      "##തിക": 3097,
      "##ഖ്യാപ": 3098,
      "നിരവധി": 3099,
      "വൈക": 3100,
      "മരിച്ച": 3101,
      "##ത്തിലും": 3102,
      "##കളെ": 3103,
      "of": 3104,
      "പോലീ": 3105,
      "##്ച്ച": 3106,
      "##രുന്നത്": 3107,
      "കഴിയ": 3108,
      "കീ": 3109,
      "##ിക്കുക": 3110,
      "##ru": 3111,
      "##തോടെ": 3112,
      "##ani": 3113,
      "അടിസ്ഥാന": 3114,
      "ഉയർ": 3115,
      "##മുഖ": 3116,
      "##ായം": 3117,
      "ന്യൂ": 3118,
      "##ുകളുടെ": 3119,
      "##ad": 3120,
      "ചോദ്യ": 3121,
      "അല": 3122,
      "ഓഫ്": 3123,
      "അപകട": 3124,
      "##pi": 3125,
      "നേരി": 3126,
      "##പാട": 3127,
      "##സില": 3128,
      "##ens": 3129,
      "നഷ്ട": 3130,
      "ആരോഗ": 3131,
      "സമ്മ": 3132,
      "ആയി": 3133,
      "പ്രതിഷേധ": 3134,
      "പ്രസിഡന്റ്": 3135,
      "സംഗീ": 3136,
      "എന്നാല്": 3137,
      "##മില്ല": 3138,
      "സാഹച": 3139,
      "##നാണ്": 3140,
      "##്യക്ഷ": 3141,
      "##കൻ": 3142,
      "നമ്മ": 3143,
      "##ാറി": 3144,
      "അനുമതി": 3145,
      "##pu": 3146,
      "##നങ്ങള്": 3147,
      "##െന്നു": 3148,
      "##ക്കേ": 3149,
      "##nd": 3150,
      "വഴ": 3151,
      "##പര": 3152,
      "അന്വേഷണ": 3153,
      "അർ": 3154,
      "പുര": 3155,
      "fe": 3156,
      "##രുവ": 3157,
      "##ാടക": 3158,
      "##വരും": 3159,
      "##ികളും": 3160,
      "ചികിത്സ": 3161,
      "##മായും": 3162,
      "##ടുക്ക": 3163,
      "##പ്പെടുന്ന": 3164,
      "ജൂ": 3165,
      "മൂന്ന്": 3166,
      "##യിട്ടുണ്ട്": 3167,
      "ഇന്റ": 3168,
      "അവരുടെ": 3169,
      "##ോമ": 3170,
      "പ്രഖ്യാപ": 3171,
      "##van": 3172,
      "##ലാശാല": 3173,
      "##ങ്ങളില്": 3174,
      "##്രീം": 3175,
      "wor": 3176,
      "ക്ഷേ": 3177,
      "##il": 3178,
      "കൊച്ചി": 3179,
      "##ോദ": 3180,
      "കേസ്": 3181,
      "##ീർ": 3182,
      "##ങ്ക്": 3183,
      "പ്രശ്": 3184,
      "അവസാന": 3185,
      "റദ്ദ": 3186,
      "ഹി": 3187,
      "##വകലാശാല": 3188,
      "തുറ": 3189,
      "സംവിധാന": 3190,
      "des": 3191,
      "cpi": 3192,
      "lic": 3193,
      "##ബ്ര": 3194,
      "rss": 3195,
      "licens": 3196,
      "വാട്": 3197,
      "##മാര്": 3198,
      "feed": 3199,
      "##hab": 3200,
      "##ൂട്ട": 3201,
      "##him": 3202,
      "##ates": 3203,
      "##േയും": 3204,
      "താമ": 3205,
      "മാല": 3206,
      "അന്വേഷണം": 3207,
      "##ക്കാട്": 3208,
      "ബൈ": 3209,
      "##puram": 3210,
      "##നിടെ": 3211,
      "ബോ": 3212,
      "##aper": 3213,
      "##തെ": 3214,
      "##പ്പെടുന്നു": 3215,
      "##himani": 3216,
      "deshab": 3217,
      "deshabhimani": 3218,
      "##്രമ": 3219,
      "##lic": 3220,
      "thiru": 3221,
      "##പ്പെട്ടി": 3222,
      "##തെന്ന്": 3223,
      "മാത": 3224,
      "അപേക്ഷ": 3225,
      "##antha": 3226,
      "##ിട": 3227,
      "വീണ്ടും": 3228,
      "##ത്തിലേക്ക്": 3229,
      "thiruvan": 3230,
      "പ്രവർത്തി": 3231,
      "##to": 3232,
      "വിശദ": 3233,
      "##ഠം": 3234,
      "അഞ്ച": 3235,
      "പഞ്ചായ": 3236,
      "##anthapuram": 3237,
      "thiruvananthapuram": 3238,
      "##ations": 3239,
      "pub": 3240,
      "##റ്റം": 3241,
      "##വിതം": 3242,
      "ഇക്ക": 3243,
      "മനുഷ്യ": 3244,
      "കേരളം": 3245,
      "ത്": 3246,
      "##മിതി": 3247,
      "##കോടതി": 3248,
      "##ത്തിനും": 3249,
      "public": 3250,
      "##വർണ": 3251,
      "##ക്കിൽ": 3252,
      "dem": 3253,
      "ഏക": 3254,
      "##സ്തു": 3255,
      "##െയി": 3256,
      "ദിവസം": 3257,
      "##തന്നെ": 3258,
      "##ഹമ്മദ്": 3259,
      "##സിന്": 3260,
      "##െടുത്തു": 3261,
      "publications": 3262,
      "##ീല": 3263,
      "##സംഗ": 3264,
      "##ടക്കം": 3265,
      "ed": 3266,
      "പുന": 3267,
      "##പത്രമാണ്": 3268,
      "സ്ഥാപന": 3269,
      "##ീന": 3270,
      "##ക്കുന്നു": 3271,
      "##ീപ്": 3272,
      "##മർശ": 3273,
      "##വണ": 3274,
      "##ൂട": 3275,
      "car": 3276,
      "ഭക്ഷ": 3277,
      "പ്രവര്": 3278,
      "##ഭാവ": 3279,
      "തു": 3280,
      "പ്രച": 3281,
      "##േജ": 3282,
      "ചുമ": 3283,
      "ബാധ": 3284,
      "##ൊപ്പം": 3285,
      "##ക്കാർ": 3286,
      "##ൈവ": 3287,
      "ഡ്ര": 3288,
      "പരിഗണ": 3289,
      "##ബാ": 3290,
      "അറസ്റ്റ്": 3291,
      "##കൊ": 3292,
      "ഇവിടെ": 3293,
      "##ശേഷം": 3294,
      "##ദം": 3295,
      "##ുവി": 3296,
      "ലക്ഷം": 3297,
      "##േള": 3298,
      "കൃഷി": 3299,
      "ചരി": 3300,
      "##ജന": 3301,
      "##ഷണ": 3302,
      "##ാലും": 3303,
      "സാമ": 3304,
      "നടപ്പ": 3305,
      "##ാക്കള": 3306,
      "വകുപ്പ്": 3307,
      "സമയ": 3308,
      "##പ്പോള്": 3309,
      "രജിസ്ട്ര": 3310,
      "##തില്": 3311,
      "##കുളം": 3312,
      "വര്": 3313,
      "##ത്തം": 3314,
      "ചെയ്യുന്ന": 3315,
      "ഡെ": 3316,
      "##യിച്ച": 3317,
      "മരണ": 3318,
      "എറ": 3319,
      "രാവ": 3320,
      "ജനറ": 3321,
      "അന്ത": 3322,
      "മഴ": 3323,
      "##തിൽ": 3324,
      "നേര": 3325,
      "##ാട്ട": 3326,
      "എന്നീ": 3327,
      "##േയ": 3328,
      "വാട്സാ": 3329,
      "##ൃഷ്ട": 3330,
      "##ണമെന്നും": 3331,
      "lt": 3332,
      "ആള": 3333,
      "##ിച്ചിരുന്നു": 3334,
      "gt": 3335,
      "ശ്രദ്ധ": 3336,
      "ആറ": 3337,
      "അധ്യക്ഷ": 3338,
      "വിധ": 3339,
      "ദിന": 3340,
      "മിക": 3341,
      "യുവ": 3342,
      "അമ്മ": 3343,
      "എറണാ": 3344,
      "യുവാ": 3345,
      "##ാസ്ത്ര": 3346,
      "##ല്യ": 3347,
      "##തിനാൽ": 3348,
      "സംസാ": 3349,
      "ഉന്ന": 3350,
      "##ച്": 3351,
      "കഥ": 3352,
      "##തല്": 3353,
      "കര": 3354,
      "അതു": 3355,
      "നടപട": 3356,
      "വേണ്ട": 3357,
      "##വാസി": 3358,
      "##ക്കുന്നത്": 3359,
      "##ജെ": 3360,
      "വകുപ്പ": 3361,
      "##ണമെന്ന": 3362,
      "ഞാന്": 3363,
      "റോഡ": 3364,
      "തന്ന": 3365,
      "##ത്തരം": 3366,
      "##തിനെ": 3367,
      "ചെയ്യും": 3368,
      "##യേ": 3369,
      "##ട്ടുണ്ട്": 3370,
      "ബാല": 3371,
      "ലീ": 3372,
      "എമ്മ": 3373,
      "ഇന്ത്യൻ": 3374,
      "ഉള്ള": 3375,
      "##കാര": 3376,
      "വളരെ": 3377,
      "ചു": 3378,
      "ആരോഗ്യ": 3379,
      "##പ്പുഴ": 3380,
      "##ത്തിലുള്ള": 3381,
      "##തായ": 3382,
      "##നുള്ള": 3383,
      "മണ": 3384,
      "##സ്ര": 3385,
      "തൃശ": 3386,
      "##ത്തിക": 3387,
      "##ങ്ങളിലും": 3388,
      "നായ": 3389,
      "നിങ്ങള്": 3390,
      "##പരി": 3391,
      "സാമ്പ": 3392,
      "##ക്കെതിരെ": 3393,
      "കോളേജ്": 3394,
      "മുസ്": 3395,
      "ശക്ത": 3396,
      "വിഷയ": 3397,
      "##പാത": 3398,
      "ഞാൻ": 3399,
      "മറ്റു": 3400,
      "സംബന്ധിച്ച": 3401,
      "ഫലം": 3402,
      "കൊല": 3403,
      "##ാവും": 3404,
      "ഭാര്യ": 3405,
      "##ന്ധി": 3406,
      "##ക്ഷേപ": 3407,
      "എന്റെ": 3408,
      "##സു": 3409,
      "##േഴ്": 3410,
      "പ്രിൻ": 3411,
      "##ീറ്റർ": 3412,
      "മറ്റ്": 3413,
      "##ിക്കാന": 3414,
      "##ണ്ടു": 3415,
      "##ന്തി": 3416,
      "മാത്രം": 3417,
      "##ോട്ടോ": 3418,
      "നിറ": 3419,
      "സുരക്ഷ": 3420,
      "ഗ്രാമ": 3421,
      "##ുന്നതിന്": 3422,
      "ലഭ്യ": 3423,
      "##ഗ്രഹ": 3424,
      "##വല": 3425,
      "രംഗ": 3426,
      "അതേ": 3427,
      "##ന്നാണ്": 3428,
      "ഭൂമി": 3429,
      "എന്നു": 3430,
      "##ടങ്ങ": 3431,
      "ജീവിത": 3432,
      "##സ്യ": 3433,
      "രാത്രി": 3434,
      "##ുപോ": 3435,
      "##ങ്ങളാണ്": 3436,
      "ടെക്": 3437,
      "അടുത്ത": 3438,
      "##സിപ്പൽ": 3439,
      "സ്വീകരിക്ക": 3440,
      "ജോലി": 3441,
      "##രിച്ച്": 3442,
      "വ്യക്തമാക്കി": 3443,
      "പട്ടിക": 3444,
      "മുഹമ്മദ്": 3445,
      "ഏഴ്": 3446,
      "കാലാവസ്ഥ": 3447,
      "സംഘടന": 3448,
      "മലപ്പുറം": 3449,
      "കേസിൽ": 3450,
      "കൗ": 3451,
      "മീ": 3452,
      "##li": 3453,
      "പാർട്ടി": 3454,
      "വിദ്യാഭ്യാസ": 3455,
      "##ാലി": 3456,
      "##സൂ": 3457,
      "ആന": 3458,
      "പ്രതിപക്ഷ": 3459,
      "ഗാ": 3460,
      "സാഹചര്യ": 3461,
      "##ലിന്റെ": 3462,
      "ഒരേ": 3463,
      "ടീ": 3464,
      "##ര്ച്ച": 3465,
      "##ികൾക്ക്": 3466,
      "പട": 3467,
      "ഒറ്റ": 3468,
      "നല്ല": 3469,
      "##സിയ": 3470,
      "മാലിന്": 3471,
      "അക്ഷ": 3472,
      "##രൻ": 3473,
      "##വില": 3474,
      "##ുമെന്നും": 3475,
      "സംഭവം": 3476,
      "കമ്മിറ്റി": 3477,
      "##tern": 3478,
      "പരിക്ക": 3479,
      "പീ": 3480,
      "നേതാവ്": 3481,
      "ഒരാ": 3482,
      "കയ": 3483,
      "കണക്ക": 3484,
      "സ്ഥിതി": 3485,
      "##മ്": 3486,
      "##തെന്നും": 3487,
      "ചെയ്തത്": 3488,
      "എന്നിവർ": 3489,
      "com": 3490,
      "നവ": 3491,
      "സ്വകാര്യ": 3492,
      "ഫെ": 3493,
      "തുടങ്ങി": 3494,
      "##കൃ": 3495,
      "പിണ": 3496,
      "സിപി": 3497,
      "ചർച്ച": 3498,
      "പുറത്ത": 3499,
      "intern": 3500,
      "കില": 3501,
      "##നില": 3502,
      "ഇന്ന്": 3503,
      "ഭി": 3504,
      "പരിഹ": 3505,
      "international": 3506,
      "ആത്മ": 3507,
      "ക്യാ": 3508,
      "##നിക്ക്": 3509,
      "##ക്ഷി": 3510,
      "സ്കൂള": 3511,
      "ഹര": 3512,
      "പ്രിൻസിപ്പൽ": 3513,
      "##പ്പിൽ": 3514,
      "##ag": 3515,
      "##നിക": 3516,
      "റിപ്പോർട്ട്": 3517,
      "രാവിലെ": 3518,
      "##ട്ടം": 3519,
      "കാരണം": 3520,
      "##orl": 3521,
      "ഗുരുത": 3522,
      "##orld": 3523,
      "##ശി": 3524,
      "##സും": 3525,
      "##േർ": 3526,
      "രീതി": 3527,
      "കമീഷ": 3528,
      "##ail": 3529,
      "മികച്ച": 3530,
      "##pl": 3531,
      "##സില്": 3532,
      "മാസ": 3533,
      "##ിക്കറ്റ്": 3534,
      "##ep": 3535,
      "##ക്കൾ": 3536,
      "##ിയായ": 3537,
      "ബിജെ": 3538,
      "ഉയ": 3539,
      "സാധ്യത": 3540,
      "world": 3541,
      "##െറ": 3542,
      "സമര": 3543,
      "വിവാഹ": 3544,
      "അവത": 3545,
      "പോലീസ്": 3546,
      "##ലിൽ": 3547,
      "ലേഖ": 3548,
      "ചെല": 3549,
      "##നത്തിൽ": 3550,
      "പത്ത": 3551,
      "ക്രി": 3552,
      "അച്ച": 3553,
      "പിണറായി": 3554,
      "വർഷം": 3555,
      "ഓരോ": 3556,
      "മൃത": 3557,
      "കായി": 3558,
      "കോണ്": 3559,
      "##day": 3560,
      "മലയാ": 3561,
      "##ക്കായി": 3562,
      "##ര്ട്ട": 3563,
      "##ഫീ": 3564,
      "tem": 3565,
      "##ുണ്ടായി": 3566,
      "##വരാണ്": 3567,
      "കൈമാ": 3568,
      "##ാകും": 3569,
      "##ഷം": 3570,
      "##ൈന": 3571,
      "മണ്ഡ": 3572,
      "സർവകലാശാല": 3573,
      "വിവാദ": 3574,
      "##rc": 3575,
      "കരു": 3576,
      "##സ്റ്റർ": 3577,
      "##ഭാഷ": 3578,
      "##തിയെ": 3579,
      "കണ്ടെത്ത": 3580,
      "##ണ്ടിക്ക": 3581,
      "##ഘാട": 3582,
      "തമ്മ": 3583,
      "ഗുരുതര": 3584,
      "മുഴ": 3585,
      "ഡയറ": 3586,
      "വാഹനം": 3587,
      "the": 3588,
      "വൈദ്യ": 3589,
      "##ട്ടിയ": 3590,
      "##വർത്ത": 3591,
      "അമേ": 3592,
      "##ട്ടില്ല": 3593,
      "തമി": 3594,
      "സംരക്ഷ": 3595,
      "തൊഴില": 3596,
      "##ര്ശ": 3597,
      "തയാ": 3598,
      "##ദാ": 3599,
      "ഫ്ര": 3600,
      "റദ്ദാക്കി": 3601,
      "സ്റ്റേഷ": 3602,
      "ഉദ്യോഗ": 3603,
      "വിദ്യാഭ്യാസം": 3604,
      "എറണാകുളം": 3605,
      "templ": 3606,
      "##eb": 3607,
      "##സോ": 3608,
      "മരിച്ചു": 3609,
      "##ാൾ": 3610,
      "##ലോ": 3611,
      "##ുകൂ": 3612,
      "src": 3613,
      "സാമ്പത്തിക": 3614,
      "മത": 3615,
      "##ിച്ചിട്ടുണ്ട്": 3616,
      "കാരണ": 3617,
      "പ്രധാനമന്ത്രി": 3618,
      "##ളിവ": 3619,
      "ഫോട്ടോ": 3620,
      "##െയ്യ": 3621,
      "സര്": 3622,
      "##ിലെത്തി": 3623,
      "മൃതദേഹ": 3624,
      "templates": 3625,
      "templatestyles": 3626,
      "രജിസ്ട്രേഷൻ": 3627,
      "styles": 3628,
      "വീട്ടിൽ": 3629,
      "ഹാജ": 3630,
      "രണ്ടാം": 3631,
      "സ്വദേശി": 3632,
      "ഉദ്ഘാട": 3633,
      "സമൂഹ": 3634,
      "##ിയേറ്റ": 3635,
      "ആക": 3636,
      "##men": 3637,
      "നിർദേശ": 3638,
      "##െൻറ": 3639,
      "ഇക്കാര്യ": 3640,
      "##േന": 3641,
      "##ുകൊണ്ട്": 3642,
      "##രേന്ദ്ര": 3643,
      "##ൻഡ": 3644,
      "സുപ": 3645,
      "##ഹൃ": 3646,
      "css": 3647,
      "##റിന്റെ": 3648,
      "##ിലി": 3649,
      "##നിര": 3650,
      "ദുര": 3651,
      "##ന്മാര": 3652,
      "##ക്സി": 3653,
      "ref": 3654,
      "##is": 3655,
      "##ിക്കുന്നതി": 3656,
      "നിയമസഭ": 3657,
      "ബന്ധപ്പെട്ട": 3658,
      "ഭാര": 3659,
      "ഉറപ്പ": 3660,
      "പാര": 3661,
      "##രാജ": 3662,
      "ഹെ": 3663,
      "പണം": 3664,
      "വികസ": 3665,
      "കെട്ടി": 3666,
      "##ങ്ങന": 3667,
      "tw": 3668,
      "അമേരിക്ക": 3669,
      "##ദ്ദേശ": 3670,
      "സഹോദ": 3671,
      "##േദ": 3672,
      "##്ലാ": 3673,
      "അറസ്റ്റ": 3674,
      "##ിട്ടുണ്ട്": 3675,
      "സമ്പ": 3676,
      "##ോളം": 3677,
      "##ന്മ": 3678,
      "ജല": 3679,
      "##ൂര": 3680,
      "പേര്ക്ക്": 3681,
      "ലഭിച്ച": 3682,
      "##ശ്ശേരി": 3683,
      "ഭാഷ": 3684,
      "fac": 3685,
      "താമസ": 3686,
      "##re": 3687,
      "ചൂണ്ടിക്ക": 3688,
      "##itter": 3689,
      "കിട്ട": 3690,
      "ശിവ": 3691,
      "twitter": 3692,
      "വാഹന": 3693,
      "കണ്ടെത്തി": 3694,
      "മുമ്പ്": 3695,
      "ഇവർ": 3696,
      "##രുദ്ധ": 3697,
      "##തന്ത്ര": 3698,
      "ചോദ": 3699,
      "പേരുടെ": 3700,
      "ശതമാനം": 3701,
      "##ebook": 3702,
      "##ov": 3703,
      "വിമാന": 3704,
      "facebook": 3705,
      "##സൈ": 3706,
      "##ൊന്നും": 3707,
      "##മല": 3708,
      "പിടി": 3709,
      "തിരുവ": 3710,
      "##ധന": 3711,
      "##ക്കാല": 3712,
      "##ുമില്ല": 3713,
      "sep": 3714,
      "##um": 3715,
      "സൗകര": 3716,
      "##െങ്കില്": 3717,
      "ഉദ്യോഗസ്ഥ": 3718,
      "സര്ക്കാര്": 3719,
      "ആര്": 3720,
      "##േത": 3721,
      "ഇടപെ": 3722,
      "##പ്പോഴും": 3723,
      "സൃഷ്ട": 3724,
      "##ാണെന്ന്": 3725,
      "##ീകരണ": 3726,
      "പാലക്കാട്": 3727,
      "##നിന്ന": 3728,
      "പ്രസിദ്ധ": 3729,
      "അല്ലാ": 3730,
      "അധ്യാപ": 3731,
      "കോട്ടയം": 3732,
      "മാറ്റി": 3733,
      "ഭിന്ന": 3734,
      "എല്ലാം": 3735,
      "അബ്ദ": 3736,
      "നൂറ": 3737,
      "അശ്": 3738,
      "വനി": 3739,
      "##്മെ": 3740,
      "ആലപ്പുഴ": 3741,
      "##list": 3742,
      "##ച്ഛ": 3743,
      "##പ്പുകള": 3744,
      "സംഗീതം": 3745,
      "നിപ": 3746,
      "വിപ": 3747,
      "ചാ": 3748,
      "##ളജി": 3749,
      "reflist": 3750,
      "പ്രിയ": 3751,
      "##ണു": 3752,
      "അവിടെ": 3753,
      "##ാക്കൾ": 3754,
      "സമാ": 3755,
      "##ചി": 3756,
      "##ംഗള": 3757,
      "പഴ": 3758,
      "##ഷ്ട്ര": 3759,
      "അഭിന": 3760,
      "മറുപ": 3761,
      "തുടക്കം": 3762,
      "ഘോഷ": 3763,
      "##ou": 3764,
      "അര": 3765,
      "കൂടിയ": 3766,
      "##ണിത്": 3767,
      "ഒഴി": 3768,
      "വേണ്ടി": 3769,
      "##ക്ടോ": 3770,
      "അക്ഷര": 3771,
      "എച്ച്": 3772,
      "രാഹു": 3773,
      "##id": 3774,
      "തമിഴ്": 3775,
      "കണ്ണൂർ": 3776,
      "സന്ദീപ്": 3777,
      "റെയിൽ": 3778,
      "##ധ്യ": 3779,
      "##ch": 3780,
      "##ച്ചത്": 3781,
      "സിപിഐ": 3782,
      "##ങ്ങളിലെ": 3783,
      "##ൺസ്": 3784,
      "##ൊക്കെ": 3785,
      "പൊല": 3786,
      "വിത": 3787,
      "ടെക്നോ": 3788,
      "##വസ്ഥ": 3789,
      "##ഡിയോ": 3790,
      "##വിൻ": 3791,
      "##ാവുന്ന": 3792,
      "ട്രെയി": 3793,
      "വായന": 3794,
      "ഗവർണ": 3795,
      "##സമയം": 3796,
      "വല": 3797,
      "##ലിം": 3798,
      "സമർപ്പ": 3799,
      "##നാഥ": 3800,
      "വ്യക്തി": 3801,
      "##ക്കിയ": 3802,
      "വഹ": 3803,
      "##ഴില്": 3804,
      "##ഖ്യ": 3805,
      "##ോടെയാണ്": 3806,
      "ചല": 3807,
      "മാത്രമാണ്": 3808,
      "##റ്റീവ്": 3809,
      "##വരി": 3810,
      "##ഖ്": 3811,
      "##ാനാണ്": 3812,
      "വരുന്ന": 3813,
      "##ണ്ണം": 3814,
      "കുഞ്ഞ": 3815,
      "##ട്ടിൽ": 3816,
      "ചോദ്യം": 3817,
      "##ഗം": 3818,
      "ഫല": 3819,
      "##ാർത്ഥ": 3820,
      "പക": 3821,
      "##തീക്ഷ": 3822,
      "മൂന്നു": 3823,
      "ഉദ്യോഗ": 3824,
      "സാധാരണ": 3825,
      "##സംഗം": 3826,
      "സംഘം": 3827,
      "ശേഷ": 3828,
      "അമി": 3829,
      "കൊണ്ട്": 3830,
      "##വിന്റെ": 3831,
      "##വഹ": 3832,
      "പിത": 3833,
      "മൈ": 3834,
      "##ൂൺ": 3835,
      "ജനറൽ": 3836,
      "നേടി": 3837,
      "##ന്മാ": 3838,
      "##പ്പെടെ": 3839,
      "##നീ": 3840,
      "##ുകാർ": 3841,
      "പക്ഷ": 3842,
      "##ൊ": 3843,
      "ചെറിയ": 3844,
      "##ഹിത": 3845,
      "ഹൈകോടതി": 3846,
      "##ori": 3847,
      "പ്രവര്ത്ത": 3848,
      "വധ": 3849,
      "ഒഴ": 3850,
      "ഇസ്ര": 3851,
      "##പ്പര്": 3852,
      "കോമ": 3853,
      "##്വ": 3854,
      "നല്കി": 3855,
      "തയാറ": 3856,
      "##ുല": 3857,
      "##ിലുള്ള": 3858,
      "ഇര": 3859,
      "പ്ല": 3860,
      "##കൈ": 3861,
      "ചിത്രം": 3862,
      "ind": 3863,
      "ഹോ": 3864,
      "##യുള്ള": 3865,
      "##മൂ": 3866,
      "പേരിൽ": 3867,
      "##കോ": 3868,
      "##ുമു": 3869,
      "പൂർത്തിയ": 3870,
      "നാല്": 3871,
      "എന്നും": 3872,
      "ജില്ലാ": 3873,
      "##ശം": 3874,
      "ഏറെ": 3875,
      "പരിക്ക്": 3876,
      "##ധികം": 3877,
      "നടത്തിയത്": 3878,
      "st": 3879,
      "##ിക്കേണ്ട": 3880,
      "##ജീവിതം": 3881,
      "ടെക്നോളജി": 3882,
      "##ര്ന്ന്": 3883,
      "##mp": 3884,
      "നാം": 3885,
      "സമിതി": 3886,
      "##വറി": 3887,
      "##ക്കുക": 3888,
      "con": 3889,
      "മദ്യ": 3890,
      "##രുടെ": 3891,
      "##പാട്": 3892,
      "##നിർ": 3893,
      "പ്രവാസി": 3894,
      "##ശ്ര": 3895,
      "മലപ്പുറത്ത്": 3896,
      "സാമൂഹ": 3897,
      "##ൻസ": 3898,
      "അദ്ദേഹത്തിന്റെ": 3899,
      "ദി": 3900,
      "അനുഭവ": 3901,
      "അധികൃത": 3902,
      "##േക്കും": 3903,
      "മനസ്സ": 3904,
      "##ൻഡ്": 3905,
      "##രുത്ത": 3906,
      "##യിലുള്ള": 3907,
      "ആർജി": 3908,
      "##യാൾ": 3909,
      "സ്ഥിര": 3910,
      "കൊല്ലം": 3911,
      "##യൊരു": 3912,
      "സർക്കാറി": 3913,
      "ദേവ": 3914,
      "##നെറ്റ്": 3915,
      "ഘോഷിന്റെ": 3916,
      "##ംഗളൂ": 3917,
      "##റാ": 3918,
      "അക": 3919,
      "##സിനെ": 3920,
      "നേടിയ": 3921,
      "നെഗ": 3922,
      "ചെയ്യുന്നു": 3923,
      "##െഴു": 3924,
      "എന്നാണ്": 3925,
      "##ധു": 3926,
      "ക്ലാ": 3927,
      "##റിഞ്ഞ": 3928,
      "ക്ഷേത്ര": 3929,
      "##റ്റാ": 3930,
      "gov": 3931,
      "സന്ത": 3932,
      "##കാരം": 3933,
      "##വാള": 3934,
      "വിവരം": 3935,
      "സഹായി": 3936,
      "കേരളത്തിലെ": 3937,
      "ആശുപത്രിയില്": 3938,
      "##ow": 3939,
      "##ടുക്കി": 3940,
      "പക്ഷേ": 3941,
      "പാവ": 3942,
      "സ്കൂൾ": 3943,
      "##ത്തോടെ": 3944,
      "ഒഴിവാ": 3945,
      "##ത്തേക്ക്": 3946,
      "##ിനെ": 3947,
      "മുസ്ലിം": 3948,
      "##ുന്നില്ല": 3949,
      "##ക്കുറിച്ച്": 3950,
      "അവതരിപ്പ": 3951,
      "##വയ": 3952,
      "ആശുപത്രിയിൽ": 3953,
      "##ട്ടെ": 3954,
      "##ധാക": 3955,
      "ആറാം": 3956,
      "##ര്ത്ത": 3957,
      "ഏത": 3958,
      "ചരിത്ര": 3959,
      "തെരഞ്ഞെടുപ്പ്": 3960,
      "##ത്തിറ": 3961,
      "##ീകരിച്ചു": 3962,
      "തിരഞ്ഞെടു": 3963,
      "വയനാട്": 3964,
      "മുമ്പ": 3965,
      "##പറ": 3966,
      "ചീ": 3967,
      "##നത്തിന്": 3968,
      "##പ്രവർത്ത": 3969,
      "ഇപ്പോൾ": 3970,
      "##ത്തിനായി": 3971,
      "ഹിന്ദ": 3972,
      "അഞ്ച്": 3973,
      "രോഗലക്ഷ": 3974,
      "പോലും": 3975,
      "ശു": 3976,
      "മുഴുവ": 3977,
      "##െതിരെ": 3978,
      "തൊഴില്": 3979,
      "രാമ": 3980,
      "ഉദ്ഘാടനം": 3981,
      "##ീയം": 3982,
      "##ിക്കൊ": 3983,
      "##ോകം": 3984,
      "എതി": 3985,
      "എത്ത": 3986,
      "കസ്റ്റ": 3987,
      "##ുണ്ടായ": 3988,
      "അതിന്റെ": 3989,
      "സതീ": 3990,
      "##മുണ്ട്": 3991,
      "##ുത": 3992,
      "എല്ലാവ": 3993,
      "ധന": 3994,
      "##്രി": 3995,
      "ഷാ": 3996,
      "ഇന്റര്": 3997,
      "##പ്പെടുത്തിയ": 3998,
      "തുക": 3999,
      "പറയുന്നത്": 4000,
      "ഉദ്യോഗസ്ഥ": 4001,
      "പരിശോധനാ": 4002,
      "is": 4003,
      "നെഗറ്റീവ്": 4004,
      "പിടിക": 4005,
      "##ടം": 4006,
      "##ീകരണം": 4007,
      "##ല്പ": 4008,
      "##ുവെ": 4009,
      "##ട്ടും": 4010,
      "##ാണു": 4011,
      "മുന്": 4012,
      "##േസ്": 4013,
      "##ചെയ്യ": 4014,
      "കിളി": 4015,
      "##ന്തുണ": 4016,
      "പേരി": 4017,
      "പന": 4018,
      "##ബൈ": 4019,
      "##og": 4020,
      "ബിജെപി": 4021,
      "##ജീവ": 4022,
      "പതിപ്പ്": 4023,
      "##ിയോ": 4024,
      "ലാ": 4025,
      "##ീൻ": 4026,
      "ഗ്യ": 4027,
      "കേന്ദ്രം": 4028,
      "തോമ": 4029,
      "മാലിന്യം": 4030,
      "സമ്മേള": 4031,
      "കേരളത്തിൽ": 4032,
      "##ci": 4033,
      "##്രാ": 4034,
      "##ഹ്മ": 4035,
      "##ment": 4036,
      "വ്യാപാര": 4037,
      "വാഴ": 4038,
      "സബ്": 4039,
      "##പ്റ്റ": 4040,
      "##ാലറി": 4041,
      "സുപ്രീം": 4042,
      "##ുമുള്ള": 4043,
      "ഇന്ന": 4044,
      "##തിന്റെ": 4045,
      "##ിക്കണം": 4046,
      "അല്ലാഹു": 4047,
      "##ിക്കാന്": 4048,
      "sp": 4049,
      "##ുകളെ": 4050,
      "ക്ഷ": 4051,
      "വീട": 4052,
      "bos": 4053,
      "പീഡ": 4054,
      "പ്രതീക്ഷ": 4055,
      "താഴ": 4056,
      "ശിക്ഷ": 4057,
      "ടെസ്റ്റ": 4058,
      "മക": 4059,
      "കാർട്ട": 4060,
      "കോളജ": 4061,
      "##രോധ": 4062,
      "വിദേശ": 4063,
      "##ati": 4064,
      "പിന്തുണ": 4065,
      "eos": 4066,
      "സഭ": 4067,
      "തര": 4068,
      "##േന്ദ്ര": 4069,
      "നടക്കുന്ന": 4070,
      "##സര്": 4071,
      "##റുടെ": 4072,
      "ഇതിൽ": 4073,
      "##െടുത്തി": 4074,
      "ഇനി": 4075,
      "പം": 4076,
      "വ്യാപാരം": 4077,
      "പുല": 4078,
      "##ുകളില": 4079,
      "##മറ": 4080,
      "ab": 4081,
      "##ർക്കും": 4082,
      "##റ്റിൽ": 4083,
      "സംവിധാനം": 4084,
      "അവകാശ": 4085,
      "ചൊ": 4086,
      "മത്സര": 4087,
      "ഒരേയൊരു": 4088,
      "ദൃ": 4089,
      "##ാളി": 4090,
      "സംസ്ക": 4091,
      "##ൺകു": 4092,
      "##ാലെ": 4093,
      "തൃശൂർ": 4094,
      "വാരാ": 4095,
      "ഇടുക്കി": 4096,
      "നിയന്ത്ര": 4097,
      "കോളജ്": 4098,
      "##sc": 4099,
      "##പോലെ": 4100,
      "എന്": 4101,
      "വൃ": 4102,
      "national": 4103,
      "കലാല": 4104,
      "india": 4105,
      "##രിക്കുകയാണ്": 4106,
      "ചുമതല": 4107,
      "ഇത്തരം": 4108,
      "##ിക്കാർ": 4109,
      "താര": 4110,
      "ഭിന്നശേഷ": 4111,
      "ഒന്നാം": 4112,
      "ഉണ്ടാക": 4113,
      "അതേസമയം": 4114,
      "നമ്മുടെ": 4115,
      "##ern": 4116,
      "##rip": 4117,
      "ഓൺ": 4118,
      "##ുപേ": 4119,
      "രോഗലക്ഷണം": 4120,
      "ജാമ": 4121,
      "ചെന്ന": 4122,
      "##tic": 4123,
      "##ിവെ": 4124,
      "##ക്കോ": 4125,
      "##oll": 4126,
      "വാരിക": 4127,
      "##മെന്ന്": 4128,
      "പദ": 4129,
      "##ക്കുള്ള": 4130,
      "##നിട": 4131,
      "##ess": 4132,
      "cont": 4133,
      "pe": 4134,
      "ചരമ": 4135,
      "##ധിപ": 4136,
      "sub": 4137,
      "മണിക്ക": 4138,
      "##ാശ": 4139,
      "##യ്യ": 4140,
      "അക്ഷരമു": 4141,
      "ഭാഗമായി": 4142,
      "ഉണ്ടായി": 4143,
      "##രായ": 4144,
      "li": 4145,
      "##ano": 4146,
      "##ിയേറ്റീവ്": 4147,
      "ഉച്ച": 4148,
      "##ഫോ": 4149,
      "##ms": 4150,
      "##ിയായി": 4151,
      "ആദി": 4152,
      "വിമർശ": 4153,
      "##ശ്വര": 4154,
      "##urs": 4155,
      "pol": 4156,
      "ബോർ": 4157,
      "##ഭയ": 4158,
      "##all": 4159,
      "pri": 4160,
      "ശരീ": 4161,
      "##നൽ": 4162,
      "മുഖപ്ര": 4163,
      "അക്ഷരമുറ്റം": 4164,
      "നെറ്റ": 4165,
      "##ൗണ്ട": 4166,
      "##ത്തിനുള്ള": 4167,
      "ജില്ലയിലെ": 4168,
      "കൂടാതെ": 4169,
      "ഗ്യാലറി": 4170,
      "##വാതില്": 4171,
      "ചെയ്ത്": 4172,
      "സഹായ": 4173,
      "ഇറക്കുന്ന": 4174,
      "ബന്ധപ്പെട്ട്": 4175,
      "മലയാളി": 4176,
      "tha": 4177,
      "##rac": 4178,
      "##bu": 4179,
      "കാർട്ടൂൺ": 4180,
      "comm": 4181,
      "പേപ്പര്": 4182,
      "##ാവശ്യ": 4183,
      "##aily": 4184,
      "daily": 4185,
      "താല": 4186,
      "##out": 4187,
      "##ണ്ണി": 4188,
      "നല്കാന്": 4189,
      "te": 4190,
      "##ക്തികള്": 4191,
      "##paper": 4192,
      "newspaper": 4193,
      "പുറത്തിറ": 4194,
      "##വന്": 4195,
      "അങ്ങനെ": 4196,
      "തെളിവ": 4197,
      "ഓണ": 4198,
      "പോയ": 4199,
      "സംസ്ഥാനത്ത്": 4200,
      "സെഞ്ച്": 4201,
      "##ons": 4202,
      "എമ്മിന്റെ": 4203,
      "ag": 4204,
      "ഓഫീ": 4205,
      "##ാനായി": 4206,
      "കായികം": 4207,
      "##ളെ": 4208,
      "സംശ": 4209,
      "##ber": 4210,
      "##ric": 4211,
      "##മിക": 4212,
      "തീപി": 4213,
      "മുഖപ്രസംഗം": 4214,
      "കിളിവാതില്": 4215,
      "ക്രിയേറ്റീവ്": 4216,
      "##ho": 4217,
      "##െഴുത്ത്": 4218,
      "ഇന്റര്നെറ്റ്": 4219,
      "##ില്ലെന്ന്": 4220,
      "col": 4221,
      "##chi": 4222,
      "വാരാന്തം": 4223,
      "സഞ്ച": 4224,
      "##ൂരിൽ": 4225,
      "ഇതിന്റെ": 4226,
      "ലേഖനങ്ങള്": 4227,
      "ഫാ": 4228,
      "പരിശീല": 4229,
      "##നിക്ക": 4230,
      "സമയം": 4231,
      "ഹരജി": 4232,
      "കോമൺസ്": 4233,
      "##ription": 4234,
      "അച്ചടിപ്പ": 4235,
      "ദിനപത്രമാണ്": 4236,
      "കീഴ": 4237,
      "വിദേശം": 4238,
      "ചരമം": 4239,
      "##scription": 4240,
      "##വ്സ്": 4241,
      "##പ്പുകളുള്ള": 4242,
      "ആർകൈ": 4243,
      "പുതുജീവിതം": 4244,
      "##യിട": 4245,
      "##ാട്ടി": 4246,
      "##ഷ്ഠ": 4247,
      "കലാലോകം": 4248,
      "subscription": 4249,
      "ദേശീയം": 4250,
      "അച്ചടിപ്പതി": 4251,
      "അച്ചടിപ്പതിപ്പുകളുള്ള": 4252,
      "##ast": 4253,
      "നെറ്റെഴുത്ത്": 4254,
      "##വില്": 4255,
      "പംക്തികള്": 4256,
      "##act": 4257,
      "ഓട": 4258,
      "##മാണെന്ന്": 4259,
      "gan": 4260,
      "##േണ്ടി": 4261,
      "##hak": 4262,
      "##കര്": 4263,
      "നടപ്പാക്ക": 4264,
      "##വിഡ്": 4265,
      "##ves": 4266,
      "ഇടപെട": 4267,
      "govern": 4268,
      "അഭിപ്ര": 4269,
      "##ann": 4270,
      "##eft": 4271,
      "സെഞ്ച്വറി": 4272,
      "left": 4273,
      "##ളു": 4274,
      "ദൈവ": 4275,
      "ഇതുവരെ": 4276,
      "##ുപോക": 4277,
      "ter": 4278,
      "ആദ്യം": 4279,
      "##nder": 4280,
      "##age": 4281,
      "this": 4282,
      "##uc": 4283,
      "##ople": 4284,
      "ജീവനക്കാര": 4285,
      "##ribu": 4286,
      "##വ്വ": 4287,
      "att": 4288,
      "people": 4289,
      "ബാങ്ക്": 4290,
      "government": 4291,
      "sit": 4292,
      "നിശ്ച": 4293,
      "നടത്തുന്ന": 4294,
      "##ലിക്ക": 4295,
      "##rist": 4296,
      "polic": 4297,
      "അശ്വിൻ": 4298,
      "##ംബർ": 4299,
      "##ശ്വാസ": 4300,
      "work": 4301,
      "അധികാര": 4302,
      "contact": 4303,
      "##യുമായി": 4304,
      "##ative": 4305,
      "under": 4306,
      "##ാരാഷ്ട്ര": 4307,
      "ജസ്റ്റി": 4308,
      "തട്ടി": 4309,
      "##ode": 4310,
      "##ായ്": 4311,
      "##െല്ലാം": 4312,
      "പുരസ്ക": 4313,
      "vac": 4314,
      "cre": 4315,
      "അമ": 4316,
      "##ൗര": 4317,
      "fr": 4318,
      "##ide": 4319,
      "about": 4320,
      "മറുപടി": 4321,
      "നമ്പര്": 4322,
      "##ഗത": 4323,
      "##തിട്ട": 4324,
      "##olog": 4325,
      "കൺ": 4326,
      "top": 4327,
      "archi": 4328,
      "##cies": 4329,
      "##വൻ": 4330,
      "jn": 4331,
      "വോട്ട": 4332,
      "##ാറിൽ": 4333,
      "ശാസ്ത്ര": 4334,
      "##ഘട്ട": 4335,
      "word": 4336,
      "democ": 4337,
      "കിലോമ": 4338,
      "use": 4339,
      "priv": 4340,
      "##racy": 4341,
      "സൂക്ഷ": 4342,
      "ko": 4343,
      "##acy": 4344,
      "policy": 4345,
      "##ollow": 4346,
      "##ribution": 4347,
      "arist": 4348,
      "license": 4349,
      "follow": 4350,
      "റാ": 4351,
      "##ള്പ്പ": 4352,
      "thamp": 4353,
      "##rav": 4354,
      "##anoor": 4355,
      "archives": 4356,
      "democracy": 4357,
      "commons": 4358,
      "അബ്ദു": 4359,
      "##hakti": 4360,
      "aristo": 4361,
      "മണ്ഡല": 4362,
      "vacan": 4363,
      "##emap": 4364,
      "creative": 4365,
      "licensed": 4366,
      "privacy": 4367,
      "ആർകൈവ്സ്": 4368,
      "terms": 4369,
      "thampanoor": 4370,
      "sitemap": 4371,
      "attribution": 4372,
      "vacancies": 4373,
      "##ashakti": 4374,
      "ganashakti": 4375,
      "മാത്രമേ": 4376,
      "തീരുമാനം": 4377,
      "##നുസ": 4378,
      "thurs": 4379,
      "thursday": 4380,
      "##ure": 4381,
      "##നിന്നും": 4382,
      "##നില്": 4383,
      "എത്ര": 4384,
      "##ന്നത്": 4385,
      "##ൽഹി": 4386,
      "കസ്റ്റഡി": 4387,
      "##സംഘ": 4388,
      "ചെയർ": 4389,
      "##ayan": 4390,
      "ടെസ്റ്റിലെ": 4391,
      "നിലവിൽ": 4392,
      "പ്രവർത്തനം": 4393,
      "ഓർ": 4394,
      "ഫി": 4395,
      "കൊടു": 4396,
      "##ൽപ്പന്ന": 4397,
      "ചെപ്പോ": 4398,
      "ബാങ്ക": 4399,
      "##ച്ചിൽ": 4400,
      "tra": 4401,
      "ചെപ്പോക്കിൽ": 4402,
      "നൂറടിച്ച്": 4403,
      "##തിരായ": 4404,
      "##asi": 4405,
      "##ology": 4406,
      "##orts": 4407,
      "ഇല": 4408,
      "ഇസ്രയേ": 4409,
      "##പ്പെട്ടത്": 4410,
      "##സ്ത്ര": 4411,
      "##omen": 4412,
      "##നിധ": 4413,
      "##zh": 4414,
      "ആയിരുന്നു": 4415,
      "##ോൾ": 4416,
      "##ിച്ചിരുന്ന": 4417,
      "##ശബ്ദ": 4418,
      "കൊ": 4419,
      "##ിച്ചാണ്": 4420,
      "പാവപ്പെട്ട": 4421,
      "##ുമെന്ന": 4422,
      "##പ്രകാരം": 4423,
      "ഓൺലൈ": 4424,
      "##വർക്ക്": 4425,
      "##ery": 4426,
      "നിക": 4427,
      "വേദ": 4428,
      "##ayanad": 4429,
      "##രുത്": 4430,
      "wayanad": 4431,
      "പത്തനം": 4432,
      "മൃതദേഹം": 4433,
      "പരിപ": 4434,
      "##ക്കുകയും": 4435,
      "സംഘടിപ്പ": 4436,
      "##vel": 4437,
      "ചലച്ചി": 4438,
      "##ravasi": 4439,
      "ഇതിന്": 4440,
      "കൂട്ടി": 4441,
      "ചന്ദ്ര": 4442,
      "നിർത്തി": 4443,
      "പരിക്കേറ്റ": 4444,
      "##ൃഗ": 4445,
      "##ുണ്ടെന്ന്": 4446,
      "mus": 4447,
      "##ുകൾക്ക്": 4448,
      "വസ്തു": 4449,
      "##ജ്ജ": 4450,
      "##ാലയ": 4451,
      "പത്തനംതിട്ട": 4452,
      "ബുദ്ധ": 4453,
      "##ema": 4454,
      "ve": 4455,
      "ലബ": 4456,
      "kann": 4457,
      "കണ്ടെത്തിയ": 4458,
      "##ഷിക": 4459,
      "ഇദ്ദേഹ": 4460,
      "##ns": 4461,
      "##കൾക്ക്": 4462,
      "ഉത്തരവ്": 4463,
      "നൽകിയത്": 4464,
      "##tyle": 4465,
      "##ികളിൽ": 4466,
      "ക്രമ": 4467,
      "book": 4468,
      "##ഭൂ": 4469,
      "vide": 4470,
      "##hic": 4471,
      "##eer": 4472,
      "sports": 4473,
      "പഞ്ചായത്ത്": 4474,
      "##ുകൊണ്ട": 4475,
      "from": 4476,
      "നിർദേശം": 4477,
      "##chn": 4478,
      "##zhik": 4479,
      "##ember": 4480,
      "##ture": 4481,
      "##ുകളാണ്": 4482,
      "##്മെന്റ്": 4483,
      "kozhik": 4484,
      "പിഴ": 4485,
      "##രിക്കാൻ": 4486,
      "kannur": 4487,
      "##ർദ": 4488,
      "ഉൾപ്പെടെ": 4489,
      "##സ്ഥി": 4490,
      "kozhikode": 4491,
      "വിപണി": 4492,
      "വികസന": 4493,
      "എനിക്ക്": 4494,
      "##ലുള്ള": 4495,
      "മറ്റൊരു": 4496,
      "pravasi": 4497,
      "ഗവ": 4498,
      "pho": 4499,
      "##വകു": 4500,
      "cin": 4501,
      "##ത്വം": 4502,
      "പ്രദ": 4503,
      "techn": 4504,
      "ആൻഡ്": 4505,
      "സുര": 4506,
      "##ise": 4507,
      "artic": 4508,
      "bus": 4509,
      "##സ്സ്": 4510,
      "##ിരുന്നു": 4511,
      "അടിയ": 4512,
      "പുസ്ത": 4513,
      "എടു": 4514,
      "##നാല്": 4515,
      "books": 4516,
      "photo": 4517,
      "technology": 4518,
      "കഴി": 4519,
      "##ൃദ": 4520,
      "lif": 4521,
      "##ുകളിലും": 4522,
      "ആവശ്യപ്പെട്ടു": 4523,
      "cinema": 4524,
      "##ിലൂടെ": 4525,
      "art": 4526,
      "ബിരു": 4527,
      "music": 4528,
      "net": 4529,
      "##ജിത്": 4530,
      "##iness": 4531,
      "educ": 4532,
      "സെന്റ": 4533,
      "ഹാജര": 4534,
      "sept": 4535,
      "കൃഷ്ണ": 4536,
      "മനസ്സില": 4537,
      "september": 4538,
      "business": 4539,
      "കല്ല": 4540,
      "മര": 4541,
      "പശ്ച": 4542,
      "women": 4543,
      "##orial": 4544,
      "സീറ്റ": 4545,
      "യഹ": 4546,
      "articles": 4547,
      "education": 4548,
      "സതീശ": 4549,
      "അവരെ": 4550,
      "##സിലെ": 4551,
      "##നക്ക്": 4552,
      "##ഘോഷ": 4553,
      "വെബ്": 4554,
      "പ്രവർത്തന": 4555,
      "##ricul": 4556,
      "##സെ": 4557,
      "##നേഹ": 4558,
      "##cast": 4559,
      "പോയി": 4560,
      "edit": 4561,
      "##hicle": 4562,
      "gall": 4563,
      "സുഹൃ": 4564,
      "career": 4565,
      "travel": 4566,
      "vehicle": 4567,
      "##ത്യാ": 4568,
      "agricul": 4569,
      "##ാഗ്": 4570,
      "സ്ക": 4571,
      "colum": 4572,
      "stage": 4573,
      "videos": 4574,
      "paper": 4575,
      "പൊലീസ്": 4576,
      "pod": 4577,
      "editorial": 4578,
      "gallery": 4579,
      "agriculture": 4580,
      "##മെന്റ്": 4581,
      "##estyle": 4582,
      "മുഖ്യ": 4583,
      "സമു": 4584,
      "columns": 4585,
      "##toon": 4586,
      "##casts": 4587,
      "lifestyle": 4588,
      "##സിന": 4589,
      "ചെയ്യുന്നത്": 4590,
      "##ോടൊപ്പം": 4591,
      "cartoon": 4592,
      "podcasts": 4593,
      "demise": 4594,
      "ആരാ": 4595,
      "##മ്പി": 4596,
      "##ഹത്യ": 4597,
      "##യിൽനിന്ന്": 4598,
      "നിർമ്മ": 4599,
      "പിൻ": 4600,
      "##പ്പള്ളി": 4601,
      "ശക്തമായ": 4602,
      "അഡ്": 4603,
      "##വിന്": 4604,
      "നടൻ": 4605,
      "പേർക്ക്": 4606,
      "സാക്ഷ": 4607,
      "ക്ക": 4608,
      "##വാന്": 4609,
      "##ൊന്ന": 4610,
      "നേതൃത്വത്തിൽ": 4611,
      "സന്ദർശ": 4612,
      "##ൽപ്പന": 4613,
      "##ൂറി": 4614,
      "യുദ്ധ": 4615,
      "വാങ്ങ": 4616,
      "നിരീക്ഷ": 4617,
      "കോണ്ഗ്രസ്": 4618,
      "പെരു": 4619,
      "ആഗ": 4620,
      "##ങ്കേ": 4621,
      "##ഹരി": 4622,
      "ഭീഷ": 4623,
      "കാട്ട": 4624,
      "ശാ": 4625,
      "കോൺഗ്ര": 4626,
      "വ്യാജ": 4627,
      "##ിക്കല്": 4628,
      "##മാരായ": 4629,
      "##കർക്ക്": 4630,
      "വാട്സാപ്": 4631,
      "നമു": 4632,
      "പെൺകു": 4633,
      "##ത്യം": 4634,
      "ചെറു": 4635,
      "##ിക്കാർക്ക്": 4636,
      "ബസ്": 4637,
      "മനസില": 4638,
      "ഇപ്പോള്": 4639,
      "ഗാന്ധി": 4640,
      "##ുകളിലെ": 4641,
      "ഉയർന്ന": 4642,
      "##ഷന്": 4643,
      "ജനു": 4644,
      "നിന്നുള്ള": 4645,
      "സംബന്ധിച്ച്": 4646,
      "##േഷന്": 4647,
      "വട": 4648,
      "പ്രശ്ന": 4649,
      "മനോ": 4650,
      "അടു": 4651,
      "##തോ": 4652,
      "##വു": 4653,
      "##്ലോ": 4654,
      "##ങ്കുകൾ": 4655,
      "സ്വന്തം": 4656,
      "നിർഭയ": 4657,
      "ചെയ്യാ": 4658,
      "നേരത്തെ": 4659,
      "കന": 4660,
      "തീപിടി": 4661,
      "പ്രോ": 4662,
      "##ിട്ടില്ല": 4663,
      "##ാരായ": 4664,
      "##ായക": 4665,
      "കൃത്യ": 4666,
      "ബോധ": 4667,
      "##ർന്ന": 4668,
      "പൂര്": 4669,
      "പ്രായ": 4670,
      "ശക്തി": 4671,
      "##ര്ന്ന": 4672,
      "സത്യത്തിന്റെ": 4673,
      "അഡ": 4674,
      "നടപടിയ": 4675,
      "മോഹ": 4676,
      "ചീഫ്": 4677,
      "##തായും": 4678,
      "ഉടമ": 4679,
      "നിലയിൽ": 4680,
      "##ഗതി": 4681,
      "കുറഞ്ഞ": 4682,
      "##ാമത്തെ": 4683,
      "##ക്രിയ": 4684,
      "##ത്തുട": 4685,
      "ലക്ഷ്യ": 4686,
      "അപ്പ": 4687,
      "ദൃശ്യ": 4688,
      "സഹകരണ": 4689,
      "ഉന്നത": 4690,
      "വിച": 4691,
      "വിലയി": 4692,
      "യഥ": 4693,
      "##ൃതി": 4694,
      "##ുകളില്": 4695,
      "റെയിൽവേ": 4696,
      "നേരിട": 4697,
      "പാവപ്പെട്ടവരുടെ": 4698,
      "സ്ട": 4699,
      "മാസം": 4700,
      "##യ്യാ": 4701,
      "##ക്കട": 4702,
      "##ഴ്സ്": 4703,
      "##രന്": 4704,
      "##മം": 4705,
      "##ലിക്": 4706,
      "എത്തിയ": 4707,
      "ഭിന്നശേഷിക്കാർക്ക്": 4708,
      "അവസ്ഥ": 4709,
      "##ങ്ങ്": 4710,
      "##പ്പറ": 4711,
      "##ിച്ചുള്ള": 4712,
      "ജസ്റ്റിസ്": 4713,
      "##ശബ്ദവും": 4714,
      "കിഴ": 4715,
      "##വാളുമായ": 4716,
      "##ത്താണ്": 4717,
      "മുഖപത്രമാണ്": 4718,
      "പടവാളുമായ": 4719,
      "നിർഭയശബ്ദവും": 4720,
      "നീക്കം": 4721,
      "##ജയ": 4722,
      "പദ്ധതിയ്ക്ക്": 4723,
      "ലബന": 4724,
      "##ഗോ": 4725,
      "നേതാക്കള": 4726,
      "##ിക്കാം": 4727,
      "ജോർ": 4728,
      "പ്രശ": 4729,
      "##ോമാ": 4730,
      "അവന്": 4731,
      "ആക്രമണ": 4732,
      "വ്യാപാരത്തിന്": 4733,
      "##ിക്കാനുള്ള": 4734,
      "സംഭവത്തിൽ": 4735,
      "ബങ്കുകൾ": 4736,
      "##പ്രദേശ": 4737,
      "##ാണെന്നും": 4738,
      "ഏപ്ര": 4739,
      "##യുൽപ്പന്ന": 4740,
      "കരുത": 4741,
      "പനയുൽപ്പന്ന": 4742,
      "മാറി": 4743,
      "തീര": 4744,
      "വിട്ട": 4745,
      "സെക്രട്ടറിയ": 4746,
      "സാമൂഹിക": 4747,
      "##ഡോ": 4748,
      "വൈകീ": 4749,
      "ദുരന്ത": 4750,
      "##ിയുള്ള": 4751,
      "##യാക": 4752,
      "##ങ്കള": 4753,
      "##മെന്റ": 4754,
      "മാറ": 4755,
      "വൈദ്യുതി": 4756,
      "##ക്രമണം": 4757,
      "##ഗ്ഗ": 4758,
      "സ്വയം": 4759,
      "കൊണ്ടു": 4760,
      "തുടങ്ങ": 4761,
      "##്മി": 4762,
      "##ീഷ്": 4763,
      "##ുന്നുണ്ട്": 4764,
      "വിൽപ": 4765,
      "##ന്ഥ": 4766,
      "##ശു": 4767,
      "ഗ്രൂ": 4768,
      "സ്നേഹ": 4769,
      "##ിലേ": 4770,
      "കൂടുതല്": 4771,
      "നിൽ": 4772,
      "##ാരിക": 4773,
      "സേവന": 4774,
      "പൂർണ": 4775,
      "##ിച്ചും": 4776,
      "##ിപ്പിച്ചു": 4777,
      "ഉള്പ്പ": 4778,
      "##റുകൾ": 4779,
      "##പഞ്ച": 4780,
      "##ല്ലോ": 4781,
      "മരണം": 4782,
      "പുറത്തു": 4783,
      "കര്": 4784,
      "ആഗ്രഹ": 4785,
      "##ൽക്ക": 4786,
      "വനിത": 4787,
      "##ാക്കാൻ": 4788,
      "അമിത": 4789,
      "സർവി": 4790,
      "നിർമ": 4791,
      "ബന്ധു": 4792,
      "സുധാക": 4793,
      "ആഭ": 4794,
      "റിപ്പോര്ട്ട": 4795,
      "മാനേജ": 4796,
      "##പ്പെടുന്നത്": 4797,
      "##ാർഡ്": 4798,
      "##ുണ്ടായിരുന്ന": 4799,
      "കോവിഡ്": 4800,
      "തോമസ്": 4801,
      "ഉമ്മ": 4802,
      "##ളള": 4803,
      "തെറ്റ": 4804,
      "##യിക്ക": 4805,
      "അക്കാദ": 4806,
      "വിധി": 4807,
      "നിക്ഷേപ": 4808,
      "##മ്പോഴ": 4809,
      "വെളി": 4810,
      "തവണ": 4811,
      "ശേഖ": 4812,
      "ഒടി": 4813,
      "##രാമ": 4814,
      "ചടങ്ങ": 4815,
      "##വാൻ": 4816,
      "##ക്കുന്നതി": 4817,
      "##ലേ": 4818,
      "കൊലപാത": 4819,
      "ഉണ്ട്": 4820,
      "നിങ്ങളുടെ": 4821,
      "ഇന": 4822,
      "അല്ലെങ്കിൽ": 4823,
      "##േക്കുള്ള": 4824,
      "##വിനെ": 4825,
      "ആന്റ": 4826,
      "വാക്ക": 4827,
      "പഠന": 4828,
      "##വത്": 4829,
      "##നട": 4830,
      "ലീഗ്": 4831,
      "ാം": 4832,
      "##കുമാർ": 4833,
      "##ങ്കേതിക": 4834,
      "ഒമ്പ": 4835,
      "ലോക്": 4836,
      "ബെംഗളൂ": 4837,
      "##ത്തിനെ": 4838,
      "ജനുവരി": 4839,
      "##നിന്നു": 4840,
      "സ്വീകരിച്ച": 4841,
      "##ക്കിട": 4842,
      "അതിന്": 4843,
      "ആദ": 4844,
      "ചാന": 4845,
      "##am": 4846,
      "അന്ന": 4847,
      "മട": 4848,
      "വിശ്വാസ": 4849,
      "നടപടികൾ": 4850,
      "##ുമായിരുന്നു": 4851,
      "ഗത": 4852,
      "രക്ത": 4853,
      "##മരിച്ചു": 4854,
      "മാതൃ": 4855,
      "##കരണം": 4856,
      "വൻ": 4857,
      "ഹോട്ട്": 4858,
      "എണ്ണം": 4859,
      "##ടിഞ്ഞ": 4860,
      "##െടുത്ത്": 4861,
      "തൊഴിലാള": 4862,
      "and": 4863,
      "റൂ": 4864,
      "ഒന്നും": 4865,
      "മുതല": 4866,
      "##ുമുണ്ട്": 4867,
      "വിൽപ്പന": 4868,
      "വിശ്വസ": 4869,
      "ലേ": 4870,
      "ആയ": 4871,
      "ഉപയോഗിച്ച്": 4872,
      "വിതരണം": 4873,
      "കൗൺ": 4874,
      "പോലെ": 4875,
      "തെളി": 4876,
      "സങ്ക": 4877,
      "##നീയ": 4878,
      "പ്രതിരോധ": 4879,
      "സ്പെ": 4880,
      "നേട": 4881,
      "##പ്രതി": 4882,
      "##വ്യ": 4883,
      "##ഹാ": 4884,
      "സാഹി": 4885,
      "ശരീര": 4886,
      "##ക്ടര്": 4887,
      "കെട്ടിട": 4888,
      "ചെയ്തിരുന്നു": 4889,
      "തയ്യാ": 4890,
      "നാലു": 4891,
      "##വെന്ന്": 4892,
      "ഇതോടെ": 4893,
      "##ുകയാണ": 4894,
      "##തേ": 4895,
      "ഗതാഗ": 4896,
      "##ഡിൽ": 4897,
      "എന്നിവിട": 4898,
      "യുവതി": 4899,
      "നശ": 4900,
      "##ുകു": 4901,
      "എങ്ങനെ": 4902,
      "പണ": 4903,
      "##ദിവ": 4904,
      "തീപിടിത്തം": 4905,
      "ഇസ്": 4906,
      "ക്രൈ": 4907,
      "##െടുത്തത്": 4908,
      "##ടിയിലേക്ക്": 4909,
      "വിശ്രമ": 4910,
      "##രുവിലെ": 4911,
      "കുഴ": 4912,
      "വടക്ക": 4913,
      "##രുന്നില്ല": 4914,
      "ചൂണ്ടിക്കാട്ടി": 4915,
      "തള്ള": 4916,
      "വെള്ളം": 4917,
      "താൽ": 4918,
      "##ാവിന്റെ": 4919,
      "##ാടെ": 4920,
      "തുടര്ന്ന്": 4921,
      "##പരമായ": 4922,
      "വൈറ": 4923,
      "ഡ്രൈ": 4924,
      "##രിത": 4925,
      "##വുമായ": 4926,
      "ഡിസം": 4927,
      "സർക്കാരി": 4928,
      "ബ്രിട്ട": 4929,
      "സാങ്കേതിക": 4930,
      "##ടക്കമുള്ള": 4931,
      "##ത്തെത്തി": 4932,
      "റോഡിൽ": 4933,
      "##ന്ദി": 4934,
      "##ഷ്യൽ": 4935,
      "##ാവാ": 4936,
      "യോഗം": 4937,
      "##ുണ്ടാക": 4938,
      "വിഭാഗം": 4939,
      "അഡ്വ": 4940,
      "##ോടു": 4941,
      "തകർ": 4942,
      "##സീ": 4943,
      "##റിന്": 4944,
      "സ്ട്രീം": 4945,
      "##മ്പർ": 4946,
      "##ആർ": 4947,
      "##യോടെ": 4948,
      "ലബനനിൽ": 4949,
      "ജോസ": 4950,
      "തന്നെയാണ്": 4951,
      "ഗവർണർ": 4952,
      "##െട്ട": 4953,
      "##മായാണ്": 4954,
      "##ാഗ്ര": 4955,
      "##ാക്കുന്ന": 4956,
      "തൂ": 4957,
      "നരേന്ദ്ര": 4958,
      "ക്ല": 4959,
      "പരാമർശ": 4960,
      "ഹോട്ട്സ്റ്റ": 4961,
      "നാമ": 4962,
      "കിട": 4963,
      "പ്രതിക": 4964,
      "##തന": 4965,
      "##ോടും": 4966,
      "സാം": 4967,
      "##േഴ്സ്": 4968,
      "മേധ": 4969,
      "മുറ": 4970,
      "സ്ഥലം": 4971,
      "യെ": 4972,
      "##മാണം": 4973,
      "നിലപാട്": 4974,
      "ശതമാന": 4975,
      "ഹോട്ട്സ്റ്റാറിൽ": 4976,
      "##കുമാ": 4977,
      "വ്യവസ": 4978,
      "ഒടിടിയിലേക്ക്": 4979,
      "##േറിയ": 4980,
      "വൈസ്": 4981,
      "##കളിലും": 4982,
      "അക്രമ": 4983,
      "പരിച": 4984,
      "വിനോ": 4985,
      "തിങ്കള": 4986,
      "ചെയ്യാൻ": 4987,
      "തദ്ദേശ": 4988,
      "ഫേസ്": 4989,
      "പാർട്ട": 4990,
      "##മന": 4991,
      "##ാവകാശ": 4992,
      "പ്രതിസ": 4993,
      "നേതൃത്വം": 4994,
      "ഇങ്ങനെ": 4995,
      "പരമ്പ": 4996,
      "##ുവന്ന": 4997,
      "യൂത്ത്": 4998,
      "##ിക്കുകയായിരുന്നു": 4999,
      "##കളാണ്": 5000,
      "ആരോപണ": 5001,
      "##സ്പെ": 5002,
      "for": 5003,
      "തിങ്കളാഴ്ച": 5004,
      "##ാംഗ": 5005,
      "മത്സ്യ": 5006,
      "നോട്ട": 5007,
      "പോസ്റ്റ്": 5008,
      "##ൃഷ്ണ": 5009,
      "ബീ": 5010,
      "##ത്താവ": 5011,
      "##ക്കൽ": 5012,
      "സ്ഥാനാർഥ": 5013,
      "##ോണം": 5014,
      "##പാ": 5015,
      "സംസ്ഥാനത്തെ": 5016,
      "ഗുരു": 5017,
      "റോഡ്": 5018,
      "നൽകുന്ന": 5019,
      "ഇന്ത്യന്": 5020,
      "പിടികൂ": 5021,
      "##ാവന": 5022,
      "മോദി": 5023,
      "കുമാർ": 5024,
      "##ഷക": 5025,
      "വനം": 5026,
      "വ്യോമാ": 5027,
      "പറഞ്ഞത്": 5028,
      "##കൃഷ്ണ": 5029,
      "##വാസം": 5030,
      "അഭിപ്രായ": 5031,
      "##ത്തുന്ന": 5032,
      "##സുകൾ": 5033,
      "##റ്റാണ്ട": 5034,
      "താലൂ": 5035,
      "##പ്പർ": 5036,
      "ഇസ്രയേലിന്റെ": 5037,
      "പിന്നാലെ": 5038,
      "##ക്ടറ": 5039,
      "##ങ്കിലും": 5040,
      "##ാര്ഥ": 5041,
      "എന്നിവരാണ്": 5042,
      "##ൃത്തി": 5043,
      "സന്": 5044,
      "##ുമോ": 5045,
      "##ങ്ങള്ക്ക്": 5046,
      "ഇയാള": 5047,
      "മുന്നിൽ": 5048,
      "##ില്ലെന്നും": 5049,
      "വ്യോമാക്രമണം": 5050,
      "ചലച്ചിത്ര": 5051,
      "കരി": 5052,
      "കാഴ്ച": 5053,
      "മുഴുവൻ": 5054,
      "വില്ല": 5055,
      "യുവാവ്": 5056,
      "പ്രസ്ത": 5057,
      "മുതല്": 5058,
      "പൈ": 5059,
      "ഇവിട": 5060,
      "എക്": 5061,
      "അന്ന്": 5062,
      "നമ": 5063,
      "വെന്തു": 5064,
      "പ്രിയപ്പെട്ട": 5065,
      "##ുണ്ടായിരുന്നു": 5066,
      "##്യൻ": 5067,
      "വ്യത്യ": 5068,
      "മരിച്ചത്": 5069,
      "ടോ": 5070,
      "##ങ്ങളായി": 5071,
      "ചേർന്ന്": 5072,
      "##കല": 5073,
      "കടന്ന": 5074,
      "##ചെയ്": 5075,
      "പാര്ട്ട": 5076,
      "അസി": 5077,
      "പാക": 5078,
      "അതിനു": 5079,
      "ഉരു": 5080,
      "തടയ": 5081,
      "##ധിപ്പ": 5082,
      "##മാണെന്നും": 5083,
      "##നെയും": 5084,
      "##ശാസ്ത്ര": 5085,
      "ആത്മഹത്യ": 5086,
      "കോർ": 5087,
      "ആറ്": 5088,
      "ബെംഗളൂരുവിലെ": 5089,
      "കോടതിയിൽ": 5090,
      "നികുതി": 5091,
      "##നോട്": 5092,
      "##ക്കാണ്": 5093,
      "സുരേഷ്": 5094,
      "എണ്ണ": 5095,
      "പരിപാട": 5096,
      "തിരുവനന്തപുര": 5097,
      "ബൈക്ക്": 5098,
      "രജിസ്റ്റർ": 5099,
      "ഔദ്യ": 5100,
      "##ങ്ങളായ": 5101,
      "വെന്തുമരിച്ചു": 5102,
      "##ട്ടർ": 5103,
      "യൂനി": 5104,
      "നാട": 5105,
      "വ്യവസ്ഥ": 5106,
      "മീറ്റർ": 5107,
      "നീക്ക": 5108,
      "തീവ": 5109,
      "##ചന്ദ്ര": 5110,
      "##ൻറെ": 5111,
      "അഞ്ചു": 5112,
      "##ാനന്ദ": 5113,
      "എന്നെ": 5114,
      "നിന്നു": 5115,
      "വൈകീട്ട്": 5116,
      "##ക്കിന്": 5117,
      "ഇംഗ്": 5118,
      "ഹൃദ": 5119,
      "##ീര": 5120,
      "സതീശൻ": 5121,
      "ആയു": 5122,
      "##ാര്ത്ഥ": 5123,
      "പ്ലാ": 5124,
      "ഗവേഷ": 5125,
      "##ികളായ": 5126,
      "നാട്ടിലെത്തി": 5127,
      "പുരു": 5128,
      "ബേ": 5129,
      "വ്യത്യസ്ത": 5130,
      "##ക്കർ": 5131,
      "##കളില്": 5132,
      "എഫ": 5133,
      "##എം": 5134,
      "##േണ്ടത്": 5135,
      "ഏജ": 5136,
      "##ക്കാ": 5137,
      "മുംബ": 5138,
      "മാർച്ച്": 5139,
      "ഇക്കാര്യം": 5140,
      "തങ്ങളുടെ": 5141,
      "##മാരുടെ": 5142,
      "ഘട്ട": 5143,
      "മൃഗ": 5144,
      "##ത്തല": 5145,
      "##സിറ്റി": 5146,
      "ജീവിതം": 5147,
      "##ിക്കാനും": 5148,
      "ചൈന": 5149,
      "##ധനാ": 5150,
      "##ുകൂല": 5151,
      "##തിനു": 5152,
      "പെട്ട": 5153,
      "##ട്ടില്": 5154,
      "##തിയാണ്": 5155,
      "കൈവ": 5156,
      "വിവരങ്ങൾ": 5157,
      "ഇടതു": 5158,
      "നിലവ": 5159,
      "സംഗീത": 5160,
      "ഭയ": 5161,
      "##മെന്ന": 5162,
      "##ാക്കിയത്": 5163,
      "##യായിരുന്നു": 5164,
      "ലോക്സഭ": 5165,
      "##ാവില്ല": 5166,
      "വിദഗ്": 5167,
      "മണി": 5168,
      "##ിപ്പിച്ച": 5169,
      "ഗൂ": 5170,
      "##ുകയോ": 5171,
      "ആവശ്യം": 5172,
      "വന്നു": 5173,
      "ശബ്ദ": 5174,
      "തുടര": 5175,
      "##ത്താൻ": 5176,
      "##ുവീ": 5177,
      "തീയ": 5178,
      "നഗരസഭ": 5179,
      "##ധിപത്യ": 5180,
      "വന": 5181,
      "തോന്ന": 5182,
      "കമ്പനി": 5183,
      "##യുടെയും": 5184,
      "##ാനാക": 5185,
      "##ാനു": 5186,
      "മുംബൈ": 5187,
      "##്യൂട്ടി": 5188,
      "##ത്തെയും": 5189,
      "##ർശന": 5190,
      "##രൂപ": 5191,
      "##സ്മ": 5192,
      "ചെയ്യു": 5193,
      "മൂന്നാം": 5194,
      "##െത്തി": 5195,
      "##ർത്തി": 5196,
      "##ോളജി": 5197,
      "മഹാ": 5198,
      "##വേദ": 5199,
      "ഭൂരി": 5200,
      "ഉടൻ": 5201,
      "##റ്റിയ": 5202,
      "##ണാടക": 5203,
      "തക": 5204,
      "പാത": 5205,
      "പങ്കെടുത്തു": 5206,
      "ഭരണഘ": 5207,
      "ആഭ്യ": 5208,
      "##ദിന": 5209,
      "ഇതേ": 5210,
      "കാസർ": 5211,
      "ഇത്തര": 5212,
      "ഗുണ": 5213,
      "on": 5214,
      "ബാബു": 5215,
      "ടാ": 5216,
      "ഇന്": 5217,
      "തിരുവോണം": 5218,
      "മൂല": 5219,
      "റേ": 5220,
      "കമ്പന": 5221,
      "##കോട്": 5222,
      "##ുമെന്നാണ്": 5223,
      "##ുവരി": 5224,
      "##ാലോ": 5225,
      "വ്യാപക": 5226,
      "ജനാ": 5227,
      "വ്യാഴ": 5228,
      "##ാരായണ": 5229,
      "##ായു": 5230,
      "എല്": 5231,
      "ഭേദ": 5232,
      "ഹിന്ദു": 5233,
      "##ത്തിലൂടെ": 5234,
      "##ശ്യമ": 5235,
      "##ഞ്ചേരി": 5236,
      "##ോറി": 5237,
      "##െയർ": 5238,
      "##വാദി": 5239,
      "##ംശ": 5240,
      "മാത്രമല്ല": 5241,
      "നിലപാട": 5242,
      "##രുത്തി": 5243,
      "വർഗ": 5244,
      "സമരം": 5245,
      "അധികൃതർ": 5246,
      "##ലാണ്": 5247,
      "##ർന്ന്": 5248,
      "കാര്യം": 5249,
      "ബമ്പർ": 5250,
      "##ിക്കുകയാണ്": 5251,
      "##സൂര്യ": 5252,
      "ഓട്ട": 5253,
      "സിദ്ധ": 5254,
      "നിർമാണ": 5255,
      "##മ്പോള്": 5256,
      "പഴയ": 5257,
      "##ഡ്ജ": 5258,
      "സ്വപ്": 5259,
      "അംഗീക": 5260,
      "ഇന്ത്യയുടെ": 5261,
      "ലക്ഷത്തിലേക്ക്": 5262,
      "##വേഗ": 5263,
      "##ത്മാ": 5264,
      "##ക്കൂ": 5265,
      "##യിലൂടെ": 5266,
      "ല്": 5267,
      "##വിട്ട": 5268,
      "അതിൽ": 5269,
      "സ്റ്റേഷന": 5270,
      "മുഖ്യമന്ത്രിയുടെ": 5271,
      "ഫേസ്ബു": 5272,
      "രാഹുൽ": 5273,
      "##ine": 5274,
      "അസോ": 5275,
      "##സമ്മ": 5276,
      "പിന്നെ": 5277,
      "##ിക്കാത്ത": 5278,
      "ആശങ്ക": 5279,
      "##ഥമിക": 5280,
      "ഇള": 5281,
      "##വൈ": 5282,
      "ജയസൂര്യ": 5283,
      "വായി": 5284,
      "എന്നിവര": 5285,
      "പരിപാടി": 5286,
      "അവര": 5287,
      "വീടി": 5288,
      "##ങ്ങനെയ": 5289,
      "അൽ": 5290,
      "##സ്ക്": 5291,
      "##യിട്ടില്ല": 5292,
      "ശമ്പ": 5293,
      "റിയ": 5294,
      "##ീസ": 5295,
      "വേണം": 5296,
      "##ിട്ടും": 5297,
      "പച്ച": 5298,
      "മീഡിയ": 5299,
      "##വാഴ്ച": 5300,
      "##ഭരണ": 5301,
      "##ീത": 5302,
      "മുട": 5303,
      "പ്രാഥമിക": 5304,
      "ഇവരെ": 5305,
      "ഞായ": 5306,
      "ഇംഗ്ലീ": 5307,
      "##പ്ല": 5308,
      "ഇഷ്ട": 5309,
      "##ര്ത്തി": 5310,
      "##ുണ്ടെന്നും": 5311,
      "പ്രതിനിധ": 5312,
      "ഡയറക്ടർ": 5313,
      "##ത്തിന്റെയും": 5314,
      "##്രോ": 5315,
      "##ാനെ": 5316,
      "സാഹചര്യത്തിൽ": 5317,
      "##ലു": 5318,
      "ഇന്ത്യയിലെ": 5319,
      "##ശ്രമ": 5320,
      "##ക്യൂ": 5321,
      "നയ": 5322,
      "പൗര": 5323,
      "കാറിൽ": 5324,
      "പുസ്തക": 5325,
      "##രേഖ": 5326,
      "വീണ": 5327,
      "ജില്ലയിൽ": 5328,
      "പകരം": 5329,
      "##ead": 5330,
      "##സ്വ": 5331,
      "ഭർത്ത": 5332,
      "പ്രമുഖ": 5333,
      "ജൂലൈ": 5334,
      "ലഭിച്ചു": 5335,
      "ജയില": 5336,
      "പ്രൊ": 5337,
      "ഒക്ടോ": 5338,
      "ദൈ": 5339,
      "##ഭോ": 5340,
      "##ികമായി": 5341,
      "സംസാരിക്ക": 5342,
      "##ര്യം": 5343,
      "വിരുദ്ധ": 5344,
      "##ൊക്ക": 5345,
      "എന്താണ്": 5346,
      "##പതി": 5347,
      "വഴിയെ": 5348,
      "വായ്പ": 5349,
      "##ിനും": 5350,
      "##സ്വാ": 5351,
      "##ിക്കപ്പെട്ട": 5352,
      "അധ്യക്ഷത": 5353,
      "എക്സ": 5354,
      "##ഷ്ക": 5355,
      "ലഭ്യമാണ്": 5356,
      "##ർഷ": 5357,
      "കാറി": 5358,
      "സയ": 5359,
      "നിങ്ങൾ": 5360,
      "##തല്ല": 5361,
      "##സേ": 5362,
      "##തിന": 5363,
      "##ികളാണ്": 5364,
      "നല്കിയ": 5365,
      "അജിത്": 5366,
      "ഫെബ്ര": 5367,
      "##ന്സ്": 5368,
      "##ശ്മ": 5369,
      "##ംസ": 5370,
      "ഭീഷണി": 5371,
      "##ലുകൾ": 5372,
      "ഒരിക്ക": 5373,
      "വെള്ളിയ": 5374,
      "വാര്": 5375,
      "നൽകാൻ": 5376,
      "##ലിന്": 5377,
      "ഭൂമ": 5378,
      "ബുദ്ധി": 5379,
      "##മാന്": 5380,
      "സ്വാതന്ത്ര": 5381,
      "മധ്യ": 5382,
      "കിലോമീറ്റർ": 5383,
      "താൻ": 5384,
      "##നുസരിച്ച്": 5385,
      "സിറ്റി": 5386,
      "തിരച്ചിൽ": 5387,
      "അരു": 5388,
      "##യായും": 5389,
      "പ്രവര്ത്തി": 5390,
      "തയ്യാറ": 5391,
      "വരും": 5392,
      "എന്നത്": 5393,
      "പിടിയില": 5394,
      "##ർമ": 5395,
      "പറയുന്ന": 5396,
      "വിമാനത്താവ": 5397,
      "കുറിച്ച്": 5398,
      "അസോസിയ": 5399,
      "ഫെബ്രുവരി": 5400,
      "കാര്യങ്ങൾ": 5401,
      "മണ്ണ": 5402,
      "##ോവ": 5403,
      "##ഫ്ര": 5404,
      "വിജില": 5405,
      "ഇയാൾ": 5406,
      "##ണർ": 5407,
      "##ുടേയും": 5408,
      "രാജ്ഞ": 5409,
      "അക്കാദമി": 5410,
      "മകൻ": 5411,
      "പ്രസിഡന്റ": 5412,
      "സുപ്രീംകോടതി": 5413,
      "##ഫല": 5414,
      "##ഗു": 5415,
      "കള്ള": 5416,
      "##പൂർ": 5417,
      "പിടിച്ച": 5418,
      "##ദായ": 5419,
      "സാഹിത്യ": 5420,
      "തുടക്ക": 5421,
      "പരാജയ": 5422,
      "ബിരുദ": 5423,
      "അനുസ": 5424,
      "വിപണിയിൽ": 5425,
      "##െട": 5426,
      "##കരുടെ": 5427,
      "##ഗി": 5428,
      "മർദ": 5429,
      "സൗകര്യ": 5430,
      "##ക്കുമ": 5431,
      "##സ്റ്റര്": 5432,
      "##ടക": 5433,
      "##ൂരിലെ": 5434,
      "##ണ്യ": 5435,
      "##ണയ": 5436,
      "##ൈസ്": 5437,
      "ലം": 5438,
      "ചെലവ": 5439,
      "പുരോഗ": 5440,
      "സ്ഥാപനങ്ങളുടെ": 5441,
      "##യുണ്ട്": 5442,
      "ആകെ": 5443,
      "പശ്ചാത്ത": 5444,
      "ടൂറി": 5445,
      "##െയോ": 5446,
      "സൂചന": 5447,
      "##യിച്ചു": 5448,
      "വിട്ടു": 5449,
      "നിയമം": 5450,
      "##വിന്ദ": 5451,
      "ബുധനാ": 5452,
      "വിട": 5453,
      "വെള്ളിയാഴ്ച": 5454,
      "നു": 5455,
      "##ത്തോളം": 5456,
      "ബുധനാഴ്ച": 5457,
      "കാലത്ത്": 5458,
      "ഹോട്ട": 5459,
      "ആശയ": 5460,
      "ഇതിനു": 5461,
      "മുതി": 5462,
      "യോ": 5463,
      "രൂ": 5464,
      "##ൻസി": 5465,
      "അനി": 5466,
      "പ്രോ": 5467,
      "ജോസഫ്": 5468,
      "അള": 5469,
      "വാഗ്": 5470,
      "സമയത്ത്": 5471,
      "മനസിലാവും": 5472,
      "##ായും": 5473,
      "പെൺകുട്ട": 5474,
      "ശ്രമിച്ച": 5475,
      "ഭഗ": 5476,
      "ലൈംഗ": 5477,
      "വ്യക്തമാക്ക": 5478,
      "സുരേന്ദ്ര": 5479,
      "##ക്ടോറിയ": 5480,
      "പ്രമേ": 5481,
      "വിക്ടോറിയ": 5482,
      "##നവും": 5483,
      "##തൃ": 5484,
      "സംവിധ": 5485,
      "എഴുതി": 5486,
      "##പഞ്ചായ": 5487,
      "ശബ": 5488,
      "രൂപയുടെ": 5489,
      "പുറത്ത്": 5490,
      "സമ്": 5491,
      "ശ്രീക": 5492,
      "പണി": 5493,
      "##ക്കാരി": 5494,
      "ആദ്യത്തെ": 5495,
      "പിക്ക": 5496,
      "റീ": 5497,
      "##ൻറ്": 5498,
      "ശരിയ": 5499,
      "##ഞ്ജ": 5500,
      "അറി": 5501,
      "നാടക": 5502,
      "യാത്രി": 5503,
      "സേന": 5504,
      "ഗംഗ": 5505,
      "രൂപയാണ്": 5506,
      "മെഡിക്കല്": 5507,
      "ഇതിനെ": 5508,
      "ഷി": 5509,
      "res": 5510,
      "ശനിയ": 5511,
      "സ്വർ": 5512,
      "##ൻ്": 5513,
      "വാദ": 5514,
      "പ്രവർത്തക": 5515,
      "എൻജി": 5516,
      "##യിരിക്കുന്നത്": 5517,
      "വിവാഹം": 5518,
      "പത്ര": 5519,
      "##സഹ": 5520,
      "മുന്നറിയി": 5521,
      "ഗ്രാമപഞ്ചായ": 5522,
      "ഞായറ": 5523,
      "പ്രസ്താവന": 5524,
      "ആഘോഷ": 5525,
      "നന്ന": 5526,
      "##ഷണൽ": 5527,
      "##മത": 5528,
      "ഓഫിസർ": 5529,
      "സന്തോഷ": 5530,
      "##്യായ": 5531,
      "##ത്തീ": 5532,
      "##ാപാ": 5533,
      "വ്യാഴാഴ്ച": 5534,
      "##ച്ചിരുന്നു": 5535,
      "കൂട്ടിയി": 5536,
      "ഞായറാഴ്ച": 5537,
      "##ത്തുള്ള": 5538,
      "##ന്നിരുന്നു": 5539,
      "ശനിയാഴ്ച": 5540,
      "തസ്": 5541,
      "കൈമാറ": 5542,
      "##കളില": 5543,
      "സേവ": 5544,
      "##കരമായ": 5545,
      "സപ്": 5546,
      "##ോഭ": 5547,
      "ഐക്യ": 5548,
      "##സര": 5549,
      "##ക്കൻ": 5550,
      "##യ്ക്കു": 5551,
      "അമ്പ": 5552,
      "ഡോക്ടർ": 5553,
      "##ളിച്ച": 5554,
      "##്പ്പിച്ചു": 5555,
      "നേതാക്കൾ": 5556,
      "ചേർന്ന": 5557,
      "നാണ്": 5558,
      "പള്ള": 5559,
      "പ്രതിയെ": 5560,
      "കെഎസ്": 5561,
      "മുറി": 5562,
      "സജീവ": 5563,
      "##ാറുണ്ട്": 5564,
      "ആരംഭിച്ചു": 5565,
      "പ്രവർത്തനങ്ങൾ": 5566,
      "ഏർ": 5567,
      "##ബോ": 5568,
      "##ുകൊണ്ടി": 5569,
      "നടന്നത്": 5570,
      "മൊബൈ": 5571,
      "അച്ഛ": 5572,
      "ആവശ്യമ": 5573,
      "എക്സ്പ": 5574,
      "അതിനെ": 5575,
      "##ംസ്": 5576,
      "കണ്ടെത്തിയത്": 5577,
      "ഇവരുടെ": 5578,
      "സമാന": 5579,
      "onl": 5580,
      "അംഗീകരിക്ക": 5581,
      "##മാറ്റ": 5582,
      "##സ്ഥിതി": 5583,
      "നിഷേധ": 5584,
      "##ബിൾ": 5585,
      "ആരോപണം": 5586,
      "##വർഷം": 5587,
      "ജയരാജ": 5588,
      "##ത്തിലെത്തിയ": 5589,
      "##ഹാര": 5590,
      "ആരും": 5591,
      "അടിയന്തര": 5592,
      "ആഭ്യന്തര": 5593,
      "ആദ്യമായി": 5594,
      "അണ": 5595,
      "##ന്യൂ": 5596,
      "ഗ്രന്ഥ": 5597,
      "##രാക": 5598,
      "സ്വന്ത": 5599,
      "വിദഗ്ധ": 5600,
      "##മാധ്യമ": 5601,
      "മന്ത്ര": 5602,
      "##ണമെന്നാണ്": 5603,
      "##മാകുന്നു": 5604,
      "##പേ": 5605,
      "##ഴ്സ": 5606,
      "##റാണ്": 5607,
      "അഭിഭാഷ": 5608,
      "##ത്സാ": 5609,
      "##നായുള്ള": 5610,
      "##ല്ലി": 5611,
      "ജനാധിപത്യ": 5612,
      "കേസിലെ": 5613,
      "ആറു": 5614,
      "ബഹ": 5615,
      "##വുമ": 5616,
      "##മിന": 5617,
      "##യിക്കുന്ന": 5618,
      "##ായിരിക്കും": 5619,
      "വെട്ട": 5620,
      "പോരാ": 5621,
      "##ബോധ": 5622,
      "അറസ്റ്റിൽ": 5623,
      "##യിലെത്തി": 5624,
      "സെപ്റ്റ": 5625,
      "ബോർഡ്": 5626,
      "##വെന്നും": 5627,
      "സൂച": 5628,
      "അർജു": 5629,
      "പക്ഷെ": 5630,
      "പെൻ": 5631,
      "ഏപ്രിൽ": 5632,
      "##റ്റർ": 5633,
      "##നാട്ട": 5634,
      "സമീപം": 5635,
      "നൂറ്റാണ്ട": 5636,
      "കൊലപാതക": 5637,
      "ജോർജ്": 5638,
      "വാഗ്ദ": 5639,
      "##ത്സവ": 5640,
      "അനുകൂല": 5641,
      "ഷോ": 5642,
      "##മാകും": 5643,
      "##ഭാഗം": 5644,
      "സ്ത്രീക": 5645,
      "##നാഥ്": 5646,
      "തേടി": 5647,
      "അന്താരാഷ്ട്ര": 5648,
      "##െയായിരുന്നു": 5649,
      "രോഗം": 5650,
      "പ്രസ": 5651,
      "സെക്ക": 5652,
      "ഷെ": 5653,
      "വിജയൻ": 5654,
      "പ്രതിഷേധം": 5655,
      "ഹൈക്ക": 5656,
      "ഡൽഹി": 5657,
      "##യിരുന്ന": 5658,
      "നേരത്തേ": 5659,
      "അഴി": 5660,
      "##ലിനെ": 5661,
      "എയർ": 5662,
      "ആണ": 5663,
      "ഫയ": 5664,
      "അമേരിക്കൻ": 5665,
      "നിയന്ത്രണ": 5666,
      "കടുത്ത": 5667,
      "ഉണ്ടായിരുന്നു": 5668,
      "അഗ്": 5669,
      "##സിക": 5670,
      "##ര്മ്മ": 5671,
      "##വിരുദ്ധ": 5672,
      "രൂപയും": 5673,
      "##ഭോക്ത": 5674,
      "പുരസ്കാരം": 5675,
      "സ്വാധ": 5676,
      "പാകി": 5677,
      "ടൈ": 5678,
      "##മെന്നും": 5679,
      "വിൽപനക്ക്": 5680,
      "ലഭിക്കുന്ന": 5681,
      "പങ്കെടു": 5682,
      "ചരിത്രം": 5683,
      "##പ്തി": 5684,
      "ഗതാഗത": 5685,
      "ദ്": 5686,
      "രാജ്ഞിയുടെ": 5687,
      "ബജ": 5688,
      "അജ": 5689,
      "അധ്യാപക": 5690,
      "പരിശോധനകൾ": 5691,
      "തുടങ്ങിയവ": 5692,
      "ഗാന്ധ": 5693,
      "രൂക്ഷ": 5694,
      "##ണിൽ": 5695,
      "ദക്ഷി": 5696,
      "തിരിക": 5697,
      "ചെറ": 5698,
      "##ഷന": 5699,
      "സഹോദര": 5700,
      "കൂട്ടിയിടിച്ച്": 5701,
      "##വരുന്ന": 5702,
      "##ജ്യ": 5703,
      "നടക്ക": 5704,
      "ലഭിച്ചത്": 5705,
      "രാജ്യത്തെ": 5706,
      "##ങ്ങിയത്": 5707,
      "രഹ": 5708,
      "അറസ്റ്റില": 5709,
      "നിർമ്": 5710,
      "##കേ": 5711,
      "##ഗാ": 5712,
      "വക": 5713,
      "##ങ്ങളോട്": 5714,
      "##വത": 5715,
      "തട്ട": 5716,
      "##വകുപ്പ്": 5717,
      "##ക്കാര്": 5718,
      "##ടില്ല": 5719,
      "##ലിയിൽ": 5720,
      "പ്രവേശനം": 5721,
      "തിരിച്ചു": 5722,
      "ക്യാമ്പ": 5723,
      "##kal": 5724,
      "ഫോൺ": 5725,
      "ഏകദേശം": 5726,
      "##ലർ": 5727,
      "##േറ്റി": 5728,
      "പിടികൂടിയ": 5729,
      "അവി": 5730,
      "##യ്ക്കും": 5731,
      "ചൊവ്": 5732,
      "ലംഘ": 5733,
      "##രില്": 5734,
      "കമീഷൻ": 5735,
      "പടിഞ്ഞ": 5736,
      "##ക്ഷൻ": 5737,
      "ചട്ട": 5738,
      "##മുറ": 5739,
      "##രിക്കു": 5740,
      "പേരെ": 5741,
      "##രംഗ": 5742,
      "കോടതിയുടെ": 5743,
      "ഏഴ": 5744,
      "വ്യവസായ": 5745,
      "##ധാന്": 5746,
      "പ്രതികളെ": 5747,
      "തീവ്ര": 5748,
      "##്യൂണി": 5749,
      "##എഫ്": 5750,
      "വീട്": 5751,
      "ജാ": 5752,
      "##ഴ്ചകൾ": 5753,
      "യുഎസ്": 5754,
      "അപകടം": 5755,
      "##മായത്": 5756,
      "##ക്കേസ്": 5757,
      "##ശാ": 5758,
      "മാര്": 5759,
      "ഡിവി": 5760,
      "റവ": 5761,
      "യാത": 5762,
      "ജീവനക്കാർ": 5763,
      "##ാവു": 5764,
      "ഭക്ഷണ": 5765,
      "പറ്റ": 5766,
      "##ായിക": 5767,
      "##പൊ": 5768,
      "##ക്കര": 5769,
      "സ്വര": 5770,
      "മക്കള": 5771,
      "ഫോർ": 5772,
      "കഴിയുന്ന": 5773,
      "ബ്രാ": 5774,
      "വിചാരണ": 5775,
      "സദ": 5776,
      "##ങ്ങുന്ന": 5777,
      "##രുമായി": 5778,
      "കനത്ത": 5779,
      "താഴെ": 5780,
      "ഞങ്ങള്": 5781,
      "നേരെ": 5782,
      "##ാപിത": 5783,
      "ലീഗ": 5784,
      "ചെയർമാൻ": 5785,
      "വിലയിരുത്ത": 5786,
      "മിക്ക": 5787,
      "ഞങ്ങൾ": 5788,
      "##കളിലെ": 5789,
      "##കുട്ടി": 5790,
      "##ത്തിനിടെ": 5791,
      "ശബരി": 5792,
      "##പ്പിലും": 5793,
      "##റിനെ": 5794,
      "തള്ളി": 5795,
      "ബ്ലോ": 5796,
      "##രാശ": 5797,
      "രാഷ്ട്ര": 5798,
      "കൂട്ടിച്ച": 5799,
      "##ug": 5800,
      "ചാനൽ": 5801,
      "ഒളി": 5802,
      "കുന്ന": 5803,
      "മാര": 5804,
      "തസ്തിക": 5805,
      "##ത്തവണ": 5806,
      "സ്വർണ": 5807,
      "##ീമ": 5808,
      "##ത്താ": 5809,
      "online": 5810,
      "##േറെ": 5811,
      "അംഗം": 5812,
      "var": 5813,
      "##ുകി": 5814,
      "റിപ്പോര്ട്ട്": 5815,
      "##ട്ടുള്ള": 5816,
      "അവന്റെ": 5817,
      "ഗാന": 5818,
      "ജു": 5819,
      "പഠനം": 5820,
      "ചര്ച്ച": 5821,
      "അതിനാൽ": 5822,
      "എത്തിച്ചു": 5823,
      "##ഘാത": 5824,
      "ഇതിന": 5825,
      "സ്ഫ": 5826,
      "##വിയ": 5827,
      "കുറി": 5828,
      "ചൊവ്വാഴ്ച": 5829,
      "##മാസ": 5830,
      "##ിച്ചിരിക്കുന്നത്": 5831,
      "##ുടി": 5832,
      "തീയതി": 5833,
      "lead": 5834,
      "അദ്ദേഹത്തെ": 5835,
      "ലൈംഗിക": 5836,
      "##ഫ്റ്റ്": 5837,
      "സ്റ്റേ": 5838,
      "##ാനോ": 5839,
      "ചെയ്യുന്നതിന്": 5840,
      "അടിസ്ഥാനത്തിൽ": 5841,
      "ന്യൂഡ": 5842,
      "##രുന്ന്": 5843,
      "കണ്ണൂര്": 5844,
      "സഹായം": 5845,
      "##ളുടെ": 5846,
      "കപ്പ": 5847,
      "##atest": 5848,
      "നദ": 5849,
      "##ിച്ചിട്ടില്ല": 5850,
      "ഒടു": 5851,
      "കുട്ടികൾ": 5852,
      "നേരിട്ട്": 5853,
      "latest": 5854,
      "##വുമാണ്": 5855,
      "##ults": 5856,
      "ജ്": 5857,
      "ചിന്ത": 5858,
      "സ്ഥാനം": 5859,
      "##മാരും": 5860,
      "##ട്ടാണ്": 5861,
      "##ിക്കി": 5862,
      "ഉത്": 5863,
      "പിതാവ്": 5864,
      "മതി": 5865,
      "##ങ്ങളുമായി": 5866,
      "ജാഗ്ര": 5867,
      "##ിക്കുന്നതിന്": 5868,
      "ഉപേക്ഷ": 5869,
      "മൊഴി": 5870,
      "##ാണോ": 5871,
      "പുരുഷ": 5872,
      "##സേന": 5873,
      "എടുത്ത": 5874,
      "ഒര": 5875,
      "ശ്രമം": 5876,
      "ആവശ്യപ്പെട്ട്": 5877,
      "ഹാ": 5878,
      "പേരാണ്": 5879,
      "##ണൽ": 5880,
      "കുട്ടി": 5881,
      "ഉണ്ടായിരുന്ന": 5882,
      "ഓഫിസ": 5883,
      "എന്തു": 5884,
      "##മാണിത്": 5885,
      "കാത്തി": 5886,
      "നിലവില": 5887,
      "മൗ": 5888,
      "അടക്കം": 5889,
      "ബംഗ": 5890,
      "വിദ്യാർഥി": 5891,
      "അഥ": 5892,
      "##മേഖല": 5893,
      "വീഡിയോ": 5894,
      "##വലി": 5895,
      "##ട്ടിഫ": 5896,
      "results": 5897,
      "റിമാൻ": 5898,
      "വര്ഷ": 5899,
      "പ്രതിസന്ധി": 5900,
      "##ോഗിക": 5901,
      "##ാൻഡ്": 5902,
      "##ർഥ": 5903,
      "##thakal": 5904,
      "varthakal": 5905,
      "##വഴി": 5906,
      "##ആർടി": 5907,
      "വിമാനത്താവള": 5908,
      "ഇരുവരും": 5909,
      "##യാള്": 5910,
      "സര്ക്കാരി": 5911,
      "##ന്റി": 5912,
      "മണിക്കൂ": 5913,
      "പോളി": 5914,
      "ഭക്ഷ്യ": 5915,
      "##പ്പും": 5916,
      "##ത്തുനിന്ന്": 5917,
      "കാര്": 5918,
      "##പ്പോ": 5919,
      "ഇനിയും": 5920,
      "ഉദ്ദേശ": 5921,
      "##ിക്കണമെന്ന്": 5922,
      "##ീകരിച്ച്": 5923,
      "ശൈ": 5924,
      "##ോട്ട": 5925,
      "##സംഖ്യ": 5926,
      "വയസ്സ": 5927,
      "എത്തിച്ച": 5928,
      "യി": 5929,
      "ഡിസംബർ": 5930,
      "രാജ്": 5931,
      "പരമാ": 5932,
      "##വാർ": 5933,
      "ജൂൺ": 5934,
      "പരിധി": 5935,
      "##ിക്കുന്നുണ്ട്": 5936,
      "അബ്ദുൽ": 5937,
      "##ിക്കുമെന്ന്": 5938,
      "കാറിടിച്ച്": 5939,
      "ഉദാ": 5940,
      "##ർക്ക്": 5941,
      "##തായിരുന്നു": 5942,
      "പ്രശസ്ത": 5943,
      "റവന്യൂ": 5944,
      "സ്പീ": 5945,
      "##ിൽനിന്ന്": 5946,
      "##വര്ക്ക്": 5947,
      "##തുമായ": 5948,
      "നിരോധ": 5949,
      "പ്രേ": 5950,
      "പാറ": 5951,
      "നവംബർ": 5952,
      "##പുരം": 5953,
      "##ഷ്യൻ": 5954,
      "കസ്റ്റഡിയില": 5955,
      "കെഎസ്ആർടി": 5956,
      "വംശ": 5957,
      "അവൾ": 5958,
      "##ുകൊണ്ടു": 5959,
      "##സ്കാരിക": 5960,
      "പകർ": 5961,
      "##ല്ഹി": 5962,
      "നമുക്ക്": 5963,
      "ബഹു": 5964,
      "##ുപോയ": 5965,
      "പള്ളി": 5966,
      "ഹൗ": 5967,
      "വെച്ച": 5968,
      "##പ്പിന്റെ": 5969,
      "##ിക്കാര": 5970,
      "##ാൻസ": 5971,
      "ക്ലാസ്": 5972,
      "##േൽ": 5973,
      "തമ്മിലുള്ള": 5974,
      "ചേർക്ക": 5975,
      "വിളിച്ചു": 5976,
      "പ്രവാസ": 5977,
      "ചുറ്റ": 5978,
      "##ിക്കറ്റ": 5979,
      "##ശേഖ": 5980,
      "ലക്ഷ്യം": 5981,
      "പ്രവൃത്തി": 5982,
      "യഹോവ": 5983,
      "പൊലീസ": 5984,
      "നിന്റെ": 5985,
      "വരെയുള്ള": 5986,
      "വെച്ച്": 5987,
      "##റിലെ": 5988,
      "##രിക്കണം": 5989,
      "നമ്പർ": 5990,
      "##വർഷ": 5991,
      "##പാദ": 5992,
      "ഇപ്പോഴും": 5993,
      "ഇത്ര": 5994,
      "##കുള": 5995,
      "##ങ്ങളുടെയും": 5996,
      "##മിന്റെ": 5997,
      "നിന്നാണ്": 5998,
      "##ങ്ങൾക്കും": 5999,
      "കഥാപാ": 6000,
      "##റില്": 6001,
      "നിർവഹ": 6002,
      "ഇലക്ട": 6003,
      "സൈനിക": 6004,
      "##ീൽ": 6005,
      "##ര്പ്പ": 6006,
      "##ാക്കും": 6007,
      "ആശ്ര": 6008,
      "ഭീക": 6009,
      "##ുകാരി": 6010,
      "നിയോഗ": 6011,
      "രച": 6012,
      "##ഹം": 6013,
      "പങ്കെടുക്ക": 6014,
      "എടുക്ക": 6015,
      "പിൻവല": 6016,
      "വിധേയ": 6017,
      "ക്ഷണ": 6018,
      "മേഖലയിൽ": 6019,
      "##യാത്ര": 6020,
      "##ിമ": 6021,
      "ഉത്തരവി": 6022,
      "##േകം": 6023,
      "തമ്മിൽ": 6024,
      "മാതൃക": 6025,
      "ഇദ്ദേഹം": 6026,
      "വെല്ല": 6027,
      "##നായിരുന്നു": 6028,
      "തമിഴ്നാട്": 6029,
      "##യിലായിരുന്നു": 6030,
      "##സിയും": 6031,
      "##ക്കുപ്പ": 6032,
      "##ൂടെയാണ്": 6033,
      "നിലനിൽ": 6034,
      "സർട്ടിഫ": 6035,
      "##ചാര": 6036,
      "മാതാപിത": 6037,
      "##ോസ്": 6038,
      "##ത്തിനെതിരെ": 6039,
      "അമിതവേഗ": 6040,
      "അനിൽ": 6041,
      "തീര്ച്ച": 6042,
      "കോടിയ": 6043,
      "##വിദ": 6044,
      "പരമ്പര": 6045,
      "##ബാധ": 6046,
      "ചതു": 6047,
      "##സ്ഥാപ": 6048,
      "പ്രതികൾ": 6049,
      "ലഹരി": 6050,
      "കമ്മീഷ": 6051,
      "ഇന്റർ": 6052,
      "##ുന്നതിനിടെ": 6053,
      "പശ്ചാത്തല": 6054,
      "##പ്പിച്ച": 6055,
      "വനിതാ": 6056,
      "സ്റ്റേഷൻ": 6057,
      "മുരള": 6058,
      "വിഷയത്തിൽ": 6059,
      "ആക്രമണം": 6060,
      "ഗുരുതരവീ": 6061,
      "മധു": 6062,
      "##രിക്കെ": 6063,
      "തിരിച്ചറിയ": 6064,
      "ഭരണഘടന": 6065,
      "തിരികെ": 6066,
      "##വർത്തി": 6067,
      "ഹരി": 6068,
      "ഭക്ഷണം": 6069,
      "അധി": 6070,
      "ആവശ്യമായ": 6071,
      "##ല്ലാതെ": 6072,
      "വാദം": 6073,
      "##ോച": 6074,
      "##ശ്രീ": 6075,
      "തൃശ്ശ": 6076,
      "##ന്മാർ": 6077,
      "##ധിത": 6078,
      "ദില": 6079,
      "ഉൾപ്പെട": 6080,
      "##പ്പോഴാണ്": 6081,
      "മഞ്ഞ": 6082,
      "##മാവ": 6083,
      "##നിയർ": 6084,
      "##വയ്പ്പിച്ചു": 6085,
      "ഉത്തരവാദി": 6086,
      "സ്ഥിതിചെയ്യ": 6087,
      "##റിങ്": 6088,
      "സാംസ്കാരിക": 6089,
      "മേധാവി": 6090,
      "ഗുരുതരവീഴ്ചകൾ": 6091,
      "##വിള": 6092,
      "നിർത്തിവയ്പ്പിച്ചു": 6093,
      "##ഡിന": 6094,
      "പ്രഫ": 6095,
      "കഴിയും": 6096,
      "##ക്ട്": 6097,
      "മന്ത്രിസഭ": 6098,
      "ചോദിച്ചു": 6099,
      "അക്കൗണ്ട": 6100,
      "കർണാടക": 6101,
      "##ടുവ": 6102,
      "ഇംഗ്ലീഷ്": 6103,
      "കുടു": 6104,
      "##ങ്ങനെയാണ്": 6105,
      "##ായ്മ": 6106,
      "ഉണ്ടായ": 6107,
      "സെൻ": 6108,
      "പരാതിയിൽ": 6109,
      "പ്രകാശ": 6110,
      "ഗോപ": 6111,
      "പിറ": 6112,
      "പ്രവേശന": 6113,
      "##ഹാരം": 6114,
      "വിശേഷ": 6115,
      "##ുപി": 6116,
      "ഒട്ട": 6117,
      "##ാൻസ്": 6118,
      "സംരക്ഷണ": 6119,
      "##ധുനിക": 6120,
      "അര്": 6121,
      "##ലിന": 6122,
      "മിനി": 6123,
      "സംസാരിച്ചു": 6124,
      "മദ്യക്കുപ്പ": 6125,
      "ജാതി": 6126,
      "പ്പ": 6127,
      "aug": 6128,
      "പോസ്റ്റ": 6129,
      "വിനോദ": 6130,
      "പ്രവർത്തിക്കുന്ന": 6131,
      "##സമിതി": 6132,
      "##ാകുന്നു": 6133,
      "പാട": 6134,
      "##ളയ": 6135,
      "##ൈബ്": 6136,
      "യാത്രികർക്ക്": 6137,
      "##ഗോപ": 6138,
      "മാത്യ": 6139,
      "വർധ": 6140,
      "കോളേജ": 6141,
      "##ന്നൂർ": 6142,
      "##പ്പിന്": 6143,
      "##ങ്ങളെയും": 6144,
      "##ദിവസം": 6145,
      "കാസർകോട്": 6146,
      "##ല്ക്ക": 6147,
      "മറ്റുള്ള": 6148,
      "സ്ഫോട": 6149,
      "അദ്ധ": 6150,
      "പാസ": 6151,
      "കലക്ടർ": 6152,
      "കേരളത്തിന്റെ": 6153,
      "എംസി": 6154,
      "കൊടുക്ക": 6155,
      "സാന്നി": 6156,
      "അമിതവേഗത്തിലെത്തിയ": 6157,
      "വിശ്വ": 6158,
      "##ചേ": 6159,
      "വിദ്യാർഥികൾ": 6160,
      "##ുവിന്റെ": 6161,
      "ശ്": 6162,
      "##ിയൻ": 6163,
      "റിപ്പ": 6164,
      "##പ്പെട്ടിരുന്നു": 6165,
      "കോർപറ": 6166,
      "##ങ്ങും": 6167,
      "മേൽ": 6168,
      "പുനഃ": 6169,
      "നോട്ടീസ്": 6170,
      "##സൺ": 6171,
      "നീതി": 6172,
      "എക്സി": 6173,
      "ധാരാ": 6174,
      "ഗോവിന്ദ": 6175,
      "സർവിസ്": 6176,
      "ജോൺ": 6177,
      "ഫോറ": 6178,
      "##വത്ക": 6179,
      "ഹൈക്കോടതി": 6180,
      "ഇൻസ്പെ": 6181,
      "##up": 6182,
      "##ാരു": 6183,
      "എല്ലാവരും": 6184,
      "##ധരൻ": 6185,
      "##ൊഴ": 6186,
      "ഒപ്പ": 6187,
      "അടക്കമുള്ള": 6188,
      "##ക്കൊള്ള": 6189,
      "ആസ്ഥാന": 6190,
      "ഉയര": 6191,
      "വാനും": 6192,
      "##ക്രമം": 6193,
      "##ാർശ": 6194,
      "##കരും": 6195,
      "അഗ്നി": 6196,
      "ഫൈ": 6197,
      "##മാസം": 6198,
      "##ാലം": 6199,
      "നിയമനം": 6200,
      "ജാമ്യം": 6201,
      "നടത്തുന്നത്": 6202,
      "രാജൻ": 6203,
      "##പ്പെടുകയും": 6204,
      "##റ്റ്യൂ": 6205,
      "കോ": 6206,
      "നടത്തും": 6207,
      "കോണ്ഗ്ര": 6208,
      "##തമ": 6209,
      "##സ്ത്യ": 6210,
      "പുഴ": 6211,
      "തർക്ക": 6212,
      "##തിരി": 6213,
      "മലബ": 6214,
      "ചുരു": 6215,
      "വോട്ട്": 6216,
      "##സ്ക്ര": 6217,
      "##ോടി": 6218,
      "മൂലം": 6219,
      "മാലിന്യ": 6220,
      "അവാർഡ്": 6221,
      "എഴുത": 6222,
      "എട്ട്": 6223,
      "എഴുത്ത": 6224,
      "എക്സ്പ്ര": 6225,
      "##വൽ": 6226,
      "രീതിയിൽ": 6227,
      "##െത്തിയ": 6228,
      "##പുര": 6229,
      "##കി": 6230,
      "മാറ്റം": 6231,
      "ഭേദഗതി": 6232,
      "വഹിച്ചു": 6233,
      "ന്ന": 6234,
      "കണ്ടു": 6235,
      "വർധിപ്പ": 6236,
      "ഹരജ": 6237,
      "ഇത്തവണ": 6238,
      "ഞാന": 6239,
      "##ടുത്ത്": 6240,
      "രമ": 6241,
      "വേഗ": 6242,
      "കയറി": 6243,
      "കാവ": 6244,
      "ഫിലി": 6245,
      "ശരി": 6246,
      "കാണാത": 6247,
      "##ക്കൂട്ട": 6248,
      "##ിയ്": 6249,
      "##ഹരണ": 6250,
      "പ്രാദേശ": 6251,
      "##ില്ലാത്ത": 6252,
      "##ർമ്മ": 6253,
      "##പ്പാ": 6254,
      "തുറന്ന": 6255,
      "കത്തി": 6256,
      "ഹേ": 6257,
      "##ണക്കിന്": 6258,
      "നിലവിലെ": 6259,
      "ജില്ലകളിൽ": 6260,
      "യേശ": 6261,
      "മുന്നോട്ട": 6262,
      "മോദ": 6263,
      "##തെന്നാണ്": 6264,
      "നിയന്ത്": 6265,
      "അവിട": 6266,
      "##ിച്ചില്ല": 6267,
      "വിജയം": 6268,
      "##സാര": 6269,
      "ങ്": 6270,
      "തുടർന്നാണ്": 6271,
      "അറിയിച്ച": 6272,
      "കരാ": 6273,
      "##ിക്കുകയ": 6274,
      "##ഗമ": 6275,
      "ദ്വ": 6276,
      "വിശദീകരണം": 6277,
      "##മാരെ": 6278,
      "##നിന്നുള്ള": 6279,
      "##കേന്ദ്ര": 6280,
      "പിക്കപ്": 6281,
      "##ലോക": 6282,
      "പറഞ്ഞ്": 6283,
      "മുരളീ": 6284,
      "സ്വതന്ത്ര": 6285,
      "ബന്ധം": 6286,
      "ചെന്നൈ": 6287,
      "അന്തി": 6288,
      "##ലില്": 6289,
      "വധശ്രമ": 6290,
      "##ുടേ": 6291,
      "##ഭാവന": 6292,
      "##നാട": 6293,
      "##ിവൈ": 6294,
      "##ന്െറ": 6295,
      "എന്ത്": 6296,
      "##ാന്ത": 6297,
      "##ണോ": 6298,
      "ഘടക": 6299,
      "##ീം": 6300,
      "ഉപകരണ": 6301,
      "##ഴിൽ": 6302,
      "എൻജിനീയ": 6303,
      "പരസ്യ": 6304,
      "കെഎസ്ആർടിസിയും": 6305,
      "അഴിമതി": 6306,
      "വിഷ്ണ": 6307,
      "##ക്തിയ": 6308,
      "ട്": 6309,
      "##ടനാ": 6310,
      "##ീര്": 6311,
      "##യെന്ന്": 6312,
      "ശസ്ത്ര": 6313,
      "##സ്തി": 6314,
      "ഒഴിവാക്ക": 6315,
      "സിവിൽ": 6316,
      "സ്വപ്ന": 6317,
      "സുരക്ഷിത": 6318,
      "ശബരിമല": 6319,
      "##യെയും": 6320,
      "##ല്ല്": 6321,
      "ഇന്ത്യയിൽ": 6322,
      "##പ്പാടി": 6323,
      "##മ്പതി": 6324,
      "##ക്സോ": 6325,
      "വിജ്ഞ": 6326,
      "##ജിത്ത്": 6327,
      "##ുഴ": 6328,
      "##ുന്നതിൽ": 6329,
      "ആരംഭിച്ച": 6330,
      "ചിത്രത്തിന്റെ": 6331,
      "വാട്സാപ്പ്": 6332,
      "##േക്കു": 6333,
      "വിര": 6334,
      "അബ": 6335,
      "അരി": 6336,
      "നിയന്ത്രണം": 6337,
      "സംശയ": 6338,
      "ജാഗ്രത": 6339,
      "വിവാദം": 6340,
      "##ൗണ്ട്": 6341,
      "ഉം": 6342,
      "##ാലോചന": 6343,
      "നെടു": 6344,
      "##സാധ": 6345,
      "മോഡ": 6346,
      "##തോടെയാണ്": 6347,
      "##ിയാ": 6348,
      "##ങ്ങാട്": 6349,
      "##ുപോയി": 6350,
      "പ്രചാരണ": 6351,
      "അഥവാ": 6352,
      "സീറ്റ്": 6353,
      "##തന്ന": 6354,
      "ഒന്ന്": 6355,
      "##ഞ്ഞി": 6356,
      "##ിപ്പിക്കുന്ന": 6357,
      "പിന്ത": 6358,
      "##ുപറ": 6359,
      "ഹൃദയ": 6360,
      "താരം": 6361,
      "ഒരാൾ": 6362,
      "കുള": 6363,
      "പ്രസംഗ": 6364,
      "സർക്കാറിന്റെ": 6365,
      "ഒക്ടോബർ": 6366,
      "ഇല്ലാത": 6367,
      "##ല്ലാത്ത": 6368,
      "ഇയാളെ": 6369,
      "ബുദ്ധിമു": 6370,
      "പരിശീലനം": 6371,
      "നിരക്ക്": 6372,
      "ന്യൂന": 6373,
      "##പ്പുകൾ": 6374,
      "##ർഭ": 6375,
      "##ഹര": 6376,
      "##രിച്ചത്": 6377,
      "സെന്റ്": 6378,
      "##ുര": 6379,
      "##ക്കൊപ്പം": 6380,
      "വാഗ്ദാനം": 6381,
      "കുമാ": 6382,
      "രേഖപ്പെടുത്തി": 6383,
      "എന്നതാണ്": 6384,
      "എന്നിവരുടെ": 6385,
      "തടസ്സ": 6386,
      "##ത്തോട്": 6387,
      "നമഃ": 6388,
      "വെല്ലുവി": 6389,
      "നടന്നു": 6390,
      "##റൽ": 6391,
      "വിഷയം": 6392,
      "##ാടതി": 6393,
      "##തുക": 6394,
      "പുനര": 6395,
      "##്യോ": 6396,
      "സൗകര്യമ": 6397,
      "ഉമ്മൻ": 6398,
      "ഒരുമ": 6399,
      "ഡിജി": 6400,
      "നന്ദ": 6401,
      "പരിചയ": 6402,
      "എനിക്ക": 6403,
      "അസ": 6404,
      "##േലിയ": 6405,
      "അവർക്ക്": 6406,
      "പാടില്ല": 6407,
      "സുഹൃത്തു": 6408,
      "ജനത": 6409,
      "സ്വാതന്ത്ര്യ": 6410,
      "##സ്സിൽ": 6411,
      "വോ": 6412,
      "കലാ": 6413,
      "മുണ്ട": 6414,
      "പ്രകൃതി": 6415,
      "വിജിലൻസ്": 6416,
      "കഥാപാത്ര": 6417,
      "##ണിവ": 6418,
      "രക്ഷാ": 6419,
      "തിരക്ക": 6420,
      "##പ്പെടുത്തിയത്": 6421,
      "അഖ": 6422,
      "##ക്കാരെ": 6423,
      "പ്രശ്നം": 6424,
      "##വിശേഷ": 6425,
      "##പ്പില്": 6426,
      "##ാമെന്ന്": 6427,
      "ഗ്രീ": 6428,
      "മാവ": 6429,
      "രക്ഷിത": 6430,
      "വകുപ്പിന്റെ": 6431,
      "തരം": 6432,
      "അവൻ": 6433,
      "യോഗത്തിൽ": 6434,
      "അത്ര": 6435,
      "##ഡിന്റെ": 6436,
      "ഗവേഷണ": 6437,
      "ധാരണ": 6438,
      "ദൂ": 6439,
      "##ലാം": 6440,
      "ഉൽപ": 6441,
      "##ജന്യ": 6442,
      "##ുള്ളൂ": 6443,
      "കണക്കാക്ക": 6444,
      "##മര്ശ": 6445,
      "##റില": 6446,
      "തങ്ങൾ": 6447,
      "പുലർച്ച": 6448,
      "##നുമായ": 6449,
      "ഇല്ലാത്ത": 6450,
      "ഉത്ത": 6451,
      "ഡിവൈ": 6452,
      "പെട്ര": 6453,
      "##ുമതി": 6454,
      "നാരായണ": 6455,
      "വെടി": 6456,
      "##ണിക്ക": 6457,
      "വിസ്ത": 6458,
      "ഉപഭോക്ത": 6459,
      "കേസില്": 6460,
      "##േറ": 6461,
      "അദ്ദേഹത്തിന്": 6462,
      "ബ്രഹ്മ": 6463,
      "ഭാരത": 6464,
      "നും": 6465,
      "ഭാഗത്ത്": 6466,
      "ചെയ്തിട്ടുണ്ട്": 6467,
      "ആകാശ": 6468,
      "കൂടുതല": 6469,
      "##ടിച്ച": 6470,
      "##el": 6471,
      "ബ്രിട്ടീഷ്": 6472,
      "പൂജ": 6473,
      "രാഹുല്": 6474,
      "പുരസ്കാര": 6475,
      "##ഫ്രിക്ക": 6476,
      "##ഷാ": 6477,
      "##യിരിക്കുന്നു": 6478,
      "##ല്ലെന്ന്": 6479,
      "##ലൂടെ": 6480,
      "മഹാരാഷ്ട്ര": 6481,
      "##ിക്കാതെ": 6482,
      "സ്പെഷ": 6483,
      "കുറവ": 6484,
      "അങ്ങ": 6485,
      "##ഡീ": 6486,
      "മറ്റും": 6487,
      "കഴിഞ്ഞു": 6488,
      "കമ്മിറ്റ": 6489,
      "ഒഴിവ": 6490,
      "കാലം": 6491,
      "പഞ്ചാ": 6492,
      "പാര്ട്ടി": 6493,
      "കൂടെ": 6494,
      "സർവേ": 6495,
      "സബ്സ്ക്ര": 6496,
      "##ക്കള്": 6497,
      "##ാന്തി": 6498,
      "##നൽക": 6499,
      "പ്രാദേശിക": 6500,
      "##വരെയും": 6501,
      "പുറമെ": 6502,
      "##ുദ്ധ": 6503,
      "എന്നറിയ": 6504,
      "തട്ടിപ്പ്": 6505,
      "ആക്ഷേപ": 6506,
      "##വിദ്യ": 6507,
      "നിലനി": 6508,
      "##ബല": 6509,
      "മേയ്": 6510,
      "എന്നിവയാണ്": 6511,
      "പ്രാധാന്": 6512,
      "##ൻ്റെ": 6513,
      "യാഥ": 6514,
      "വർധന": 6515,
      "##തെന്ന": 6516,
      "##തയും": 6517,
      "സുരക്ഷാ": 6518,
      "##വശ": 6519,
      "യാതൊരു": 6520,
      "ക്ലിക്": 6521,
      "ഇൻസ്": 6522,
      "പോകുന്ന": 6523,
      "##േഡ്": 6524,
      "##ഞ്ചി": 6525,
      "പ്രശ്നങ്ങൾ": 6526,
      "ശങ്ക": 6527,
      "കാണാം": 6528,
      "നിർബന്ധ": 6529,
      "##ാവിനെ": 6530,
      "സൂര്യ": 6531,
      "കഴിയില്ല": 6532,
      "അൻ": 6533,
      "##പ്പിച്ചു": 6534,
      "മാനസിക": 6535,
      "ന്യായ": 6536,
      "##ികള്ക്ക്": 6537,
      "നൈ": 6538,
      "##കന്": 6539,
      "രൂപം": 6540,
      "സമ്മാന": 6541,
      "പിടികൂടിയത്": 6542,
      "കത്ത്": 6543,
      "മീറ്റ": 6544,
      "അതില്": 6545,
      "ചാല": 6546,
      "പ്രകട": 6547,
      "മ്യൂ": 6548,
      "വാട്സാപ്പിലും": 6549,
      "തൊട്ട": 6550,
      "സബ്സ്ക്രൈബ്": 6551,
      "തീര്ച്ചയായും": 6552,
      "ജന്മ": 6553,
      "##വീന": 6554,
      "ക്രിക്കറ്റ്": 6555,
      "പുറപ്പെടു": 6556,
      "ഇൻസ്റ്റി": 6557,
      "ആധുനിക": 6558,
      "##വിക": 6559,
      "പദവി": 6560,
      "മായ": 6561,
      "##ഡർ": 6562,
      "ഓൺലൈൻ": 6563,
      "അലി": 6564,
      "നടക്കുന്നത്": 6565,
      "ലഭിക്കും": 6566,
      "വള്ള": 6567,
      "##േഷ്യ": 6568,
      "നൽകിയിരുന്നു": 6569,
      "##ടുള്ള": 6570,
      "##ാണെന്ന": 6571,
      "എന്നിവര്": 6572,
      "ആലുവ": 6573,
      "മുതിർന്ന": 6574,
      "പ്രഖ്യാപിച്ചു": 6575,
      "ശേഷമാണ്": 6576,
      "പേരും": 6577,
      "നാഗ": 6578,
      "പെണ്": 6579,
      "##കൊണ്ട്": 6580,
      "ഗണ": 6581,
      "ജോര്": 6582,
      "##സ്ഥല": 6583,
      "##മാത": 6584,
      "##ated": 6585,
      "നീള": 6586,
      "പ്രഭ": 6587,
      "അവസരം": 6588,
      "ടീമ": 6589,
      "സൊ": 6590,
      "##ളിയ": 6591,
      "രാജ്യത്ത്": 6592,
      "എഡി": 6593,
      "##റ്റൽ": 6594,
      "##നടപ": 6595,
      "സജ്ജ": 6596,
      "ടു": 6597,
      "സ്ഥാപനങ്ങൾ": 6598,
      "തോക്കും": 6599,
      "##ക്കളും": 6600,
      "താഴ്": 6601,
      "ഗംഗാവ": 6602,
      "##ുഡ്": 6603,
      "##ത്തൊ": 6604,
      "##ത്തോട": 6605,
      "##ിക്കില്ല": 6606,
      "പ്രവർത്തകർ": 6607,
      "യോഗ്യത": 6608,
      "ബസ": 6609,
      "ഡ്രെ": 6610,
      "പാഠ": 6611,
      "അയ്യ": 6612,
      "##ങ്ങഠം": 6613,
      "എങ്കിലും": 6614,
      "അവസാനിപ്പ": 6615,
      "##റ്റഡ്": 6616,
      "വാങ്ങി": 6617,
      "##ൊരു": 6618,
      "##ുകൊണ്ടാണ്": 6619,
      "##സംബന്ധ": 6620,
      "##ate": 6621,
      "കായിക": 6622,
      "##ാലാണ്": 6623,
      "##ാനാവില്ല": 6624,
      "കൊട്ട": 6625,
      "##ുട്": 6626,
      "##ുപേർ": 6627,
      "ഗൂഢ": 6628,
      "ലൈസ": 6629,
      "##ഡ്ജർ": 6630,
      "##പ്പതി": 6631,
      "ഇതില്": 6632,
      "ചൂണ്ടിക്കാട്ട": 6633,
      "##ലങ്ക": 6634,
      "ഓൺലൈനായി": 6635,
      "താലൂക്ക്": 6636,
      "പ്ലസ്": 6637,
      "##വായി": 6638,
      "സമാധാന": 6639,
      "##നുമായി": 6640,
      "എട്ട": 6641,
      "നാട്ടുകാർ": 6642,
      "പ്രചാര": 6643,
      "പോല": 6644,
      "സമുദായ": 6645,
      "##വോ": 6646,
      "ദുരി": 6647,
      "കൊച്ചി": 6648,
      "സംഭാവന": 6649,
      "തെരഞ്ഞെടുപ്പിൽ": 6650,
      "ഹയർ": 6651,
      "സ്റ്റേറ്റ്": 6652,
      "സ്ഥലത്ത്": 6653,
      "ഇൻസ്പെക്ടർ": 6654,
      "ആദിവാസി": 6655,
      "##യുക്ത": 6656,
      "##വാര": 6657,
      "നിമി": 6658,
      "##ോഗ്ര": 6659,
      "വീഴ്ച": 6660,
      "##കളായ": 6661,
      "ടൂറിസം": 6662,
      "##തക": 6663,
      "ദമ്പതി": 6664,
      "വേഷ": 6665,
      "ഇന്നലെ": 6666,
      "ആരാധ": 6667,
      "കഠ": 6668,
      "##ത്തുക": 6669,
      "എഴുതിയ": 6670,
      "##ിച്ചാൽ": 6671,
      "##മിത": 6672,
      "##ത്തന്നെ": 6673,
      "##കാര്യം": 6674,
      "##രിക്കുകയും": 6675,
      "കൊള്ള": 6676,
      "##ാവിന്": 6677,
      "നായർ": 6678,
      "അവധി": 6679,
      "##ഡുകൾ": 6680,
      "ത്ര": 6681,
      "ഭാരവാഹ": 6682,
      "സെപ്റ്റംബർ": 6683,
      "കാസര്": 6684,
      "ഉൾപ്പെടെയുള്ള": 6685,
      "ശസ്ത്രക്രിയ": 6686,
      "##ന്റേ": 6687,
      "മലയാളം": 6688,
      "വെബ്സൈ": 6689,
      "ജനറല്": 6690,
      "അർജുനായുള്ള": 6691,
      "സ്റ്റാ": 6692,
      "സൂപ്പർ": 6693,
      "##ൗൺ": 6694,
      "ഞങ്ങളുടെ": 6695,
      "##ായില്ല": 6696,
      "മദ്യക്കുപ്പിയും": 6697,
      "മുട്ട": 6698,
      "കൂടി": 6699,
      "ഇതിനായി": 6700,
      "ഉദ": 6701,
      "##േണ്ടതു": 6702,
      "വന്യ": 6703,
      "സമ്മതി": 6704,
      "സ്വാധീന": 6705,
      "ആവശ്യപ്പെട്ട": 6706,
      "തുടർച്ച": 6707,
      "ഈട": 6708,
      "##ജ്ജ്": 6709,
      "തോട്ട": 6710,
      "##വെന്ന": 6711,
      "ഡ്രെഡ്ജർ": 6712,
      "സ്റ്റോ": 6713,
      "##പക്ഷം": 6714,
      "##കാലത്ത്": 6715,
      "പെരി": 6716,
      "ആന്റണി": 6717,
      "ഗംഗാവലിയിൽ": 6718,
      "##ലിപ്പ": 6719,
      "##സ്പെൻ": 6720,
      "സമ്മേളനം": 6721,
      "റിസർ": 6722,
      "നേതാവ": 6723,
      "നിരീക്ഷണ": 6724,
      "##ത്തുടർന്ന്": 6725,
      "കലാപ": 6726,
      "##ാലത്ത്": 6727,
      "##റ്റില്": 6728,
      "കൃതി": 6729,
      "കൂടിക്ക": 6730,
      "ഉപയോഗിക്കുന്ന": 6731,
      "##ഴിലാള": 6732,
      "##ല്ലൂർ": 6733,
      "കുത്തി": 6734,
      "പുറപ്പെടുവ": 6735,
      "##യ്ക്കാൻ": 6736,
      "##െടുക്കാൻ": 6737,
      "അതുകൊണ്ട്": 6738,
      "യൂണിവ": 6739,
      "##ത്തിൽനിന്ന്": 6740,
      "വെളിപ്പെടുത്ത": 6741,
      "സ്ത്രീകൾ": 6742,
      "##തര": 6743,
      "പട്ടികയിൽ": 6744,
      "പോക്സോ": 6745,
      "സുഖ": 6746,
      "ഭരണകൂ": 6747,
      "പിടിയിൽ": 6748,
      "നര": 6749,
      "കാമ്പ": 6750,
      "ദശ": 6751,
      "ബില്ല": 6752,
      "##സമ്മേള": 6753,
      "തിക": 6754,
      "ച്ച": 6755,
      "വരുന്നു": 6756,
      "##മാക്കുന്ന": 6757,
      "##െടുപ്പ്": 6758,
      "കാണാൻ": 6759,
      "വിദ്യാർത്ഥ": 6760,
      "##ടും": 6761,
      "##ച്ചവ": 6762,
      "ചെയ്യുക": 6763,
      "അന്തിമ": 6764,
      "##റ്റു": 6765,
      "ശിപ": 6766,
      "ഒരിക്കലും": 6767,
      "##പരമായി": 6768,
      "സംഭവത്തില്": 6769,
      "വീതം": 6770,
      "രാജീവ്": 6771,
      "കമ്പ്യൂ": 6772,
      "ഓളം": 6773,
      "മൊബൈൽ": 6774,
      "##dated": 6775,
      "##ട്ടിന്റെ": 6776,
      "##ബര്": 6777,
      "##ുണ്ടോ": 6778,
      "ആധ": 6779,
      "സ്വര്": 6780,
      "##കീയ": 6781,
      "##സ്ട്രേലിയ": 6782,
      "പാര്": 6783,
      "##വരു": 6784,
      "##ന്മാര്": 6785,
      "സർവ": 6786,
      "ബല": 6787,
      "##ക്യൂട്ട": 6788,
      "##ാണിത്": 6789,
      "നാട്ടുകാര": 6790,
      "രു": 6791,
      "സംരംഭ": 6792,
      "##ലേക്ക്": 6793,
      "നടത്താൻ": 6794,
      "നീണ്ട": 6795,
      "പലരും": 6796,
      "##മീ": 6797,
      "##ിച്ചിരുന്നത്": 6798,
      "ഗുജ": 6799,
      "ഭീകര": 6800,
      "ഊർ": 6801,
      "പരിസ്ഥിതി": 6802,
      "വ്യത്യാ": 6803,
      "മെട്ര": 6804,
      "സിനി": 6805,
      "##ചിത": 6806,
      "ഏതെങ്കിലും": 6807,
      "മതിയ": 6808,
      "അസിസ്റ്റ": 6809,
      "അറിഞ്ഞ": 6810,
      "##ുന്നതിനും": 6811,
      "##പ്രദ": 6812,
      "ഇവര്": 6813,
      "##ാകെ": 6814,
      "##ാരംഭ": 6815,
      "##updated": 6816,
      "##ക്കുറിച്ചുള്ള": 6817,
      "ദേശീയപാത": 6818,
      "##താം": 6819,
      "കശ്മ": 6820,
      "##മാക്കിയ": 6821,
      "നടപ്പില": 6822,
      "നിങ്ങളെ": 6823,
      "##ണ്ഠ": 6824,
      "എക്സൈസ്": 6825,
      "ഡെപ": 6826,
      "കുട്ടികള": 6827,
      "ഉണ്ടാക്ക": 6828,
      "##സ്പി": 6829,
      "സ്വാമി": 6830,
      "പിന്തുട": 6831,
      "കൂടിക്കാഴ്ച": 6832,
      "##മർ": 6833,
      "##ൊരാ": 6834,
      "ആളുകൾ": 6835,
      "##വര്ത്ത": 6836,
      "ബ്ലോക്ക്": 6837,
      "പൊലീസിന്": 6838,
      "ചെന്നി": 6839,
      "##ല്ലേ": 6840,
      "ഫുട്": 6841,
      "##റം": 6842,
      "മേഖലയിലെ": 6843,
      "നേട്ട": 6844,
      "ചിന്തി": 6845,
      "പരസ്പ": 6846,
      "ഉറപ്പാക്ക": 6847,
      "ക്ഷേത്രം": 6848,
      "ദ്ര": 6849,
      "സസ്പെൻ": 6850,
      "നടി": 6851,
      "അഭ്യ": 6852,
      "പെൻഷൻ": 6853,
      "##രാജ്": 6854,
      "പരിഗണന": 6855,
      "മയ": 6856,
      "മകൾ": 6857,
      "ഡയ": 6858,
      "പരിഹരിക്ക": 6859,
      "##കാലം": 6860,
      "##ന്മാരുടെ": 6861,
      "യൂണിവേഴ്": 6862,
      "##യാൽ": 6863,
      "കത്ത": 6864,
      "##കൂർ": 6865,
      "##മില്ലാത്ത": 6866,
      "അറ്റ": 6867,
      "അങ്ക": 6868,
      "ആം": 6869,
      "##മ്പിൽ": 6870,
      "കുടി": 6871,
      "##ാക്കള്": 6872,
      "തുറമുഖ": 6873,
      "##യിൻ": 6874,
      "##മായുള്ള": 6875,
      "##ോർ": 6876,
      "അതോറി": 6877,
      "##സിങ്": 6878,
      "കേൾ": 6879,
      "നഷ്ടപരി": 6880,
      "##ുന്നതിനു": 6881,
      "സുരേന്ദ്രൻ": 6882,
      "പിന്നിൽ": 6883,
      "പദ്ധതിയുടെ": 6884,
      "##ര്ന്നു": 6885,
      "ചുവ": 6886,
      "അപ്ര": 6887,
      "കവിത": 6888,
      "ഗി": 6889,
      "മുദ്ര": 6890,
      "നടക്കും": 6891,
      "എത്തിയത്": 6892,
      "##രക്ക": 6893,
      "##ംബ്രാ": 6894,
      "അതിനാല്": 6895,
      "എതിർ": 6896,
      "കളി": 6897,
      "##ത്തൂർ": 6898,
      "പേരു": 6899,
      "പരു": 6900,
      "പോലുള്ള": 6901,
      "ഗുജറാ": 6902,
      "##ലക്ഷം": 6903,
      "ഭാഗം": 6904,
      "പത്മ": 6905,
      "വെറു": 6906,
      "##ing": 6907,
      "ജ്ഞ": 6908,
      "സ്കൂളിൽ": 6909,
      "##ോൺ": 6910,
      "വർഷത്തെ": 6911,
      "ദക്ഷിണ": 6912,
      "കറു": 6913,
      "##പര്യ": 6914,
      "മെച്ച": 6915,
      "##രുമ": 6916,
      "സമൻസ്": 6917,
      "ക്രൈംബ്രാ": 6918,
      "നൽകും": 6919,
      "##മേശ്": 6920,
      "##ക്കാന്": 6921,
      "യുടെ": 6922,
      "ദീപ": 6923,
      "##സിക്യൂ": 6924,
      "##ചക": 6925,
      "പൊലീസിന്റെ": 6926,
      "എന്നിവരും": 6927,
      "ഡ്രൈവർ": 6928,
      "അഗ": 6929,
      "ചാർ": 6930,
      "സ്വഭാവ": 6931,
      "##ൻഡറി": 6932,
      "ആഗസ്റ്റ്": 6933,
      "ങ്ങ": 6934,
      "നാള": 6935,
      "ടീം": 6936,
      "##ഡും": 6937,
      "##രാണ": 6938,
      "hom": 6939,
      "പോർ": 6940,
      "##വതി": 6941,
      "##ക്കിയത്": 6942,
      "##വിഭാഗ": 6943,
      "##ങ്ങളിലേക്ക്": 6944,
      "വാങ്ങിയ": 6945,
      "##app": 6946,
      "ഇതാണ്": 6947,
      "ബിജെപ": 6948,
      "##യാണെന്ന്": 6949,
      "ചെന്നിത്തല": 6950,
      "അവസര": 6951,
      "തീരുമാനിച്ചു": 6952,
      "ശുദ്ധ": 6953,
      "##ക്കാരുടെ": 6954,
      "##ല്ലെന്നും": 6955,
      "ഡാ": 6956,
      "##ബ്ലിക്": 6957,
      "##േക്കാൾ": 6958,
      "ഓഫ": 6959,
      "എന്നിങ്ങനെ": 6960,
      "##സാദ്": 6961,
      "##വേണ്ടി": 6962,
      "പാർല": 6963,
      "##ഡ്ര": 6964,
      "##ജിത": 6965,
      "##നാക": 6966,
      "അതിന": 6967,
      "##ാലയം": 6968,
      "കെട്ട": 6969,
      "ഭക്ത": 6970,
      "##സംഘം": 6971,
      "രണ്ടാമത്തെ": 6972,
      "##ുന്നതിനായി": 6973,
      "വാടക": 6974,
      "##നിധി": 6975,
      "##മിട": 6976,
      "##നയ": 6977,
      "വാഹനങ്ങൾ": 6978,
      "സ്ഥിരീകരിച്ച": 6979,
      "ഗ്രാമപഞ്ചായത്ത്": 6980,
      "##്യമുള്ള": 6981,
      "ഒരാള": 6982,
      "##പ്പറ്റി": 6983,
      "പ്രസ്ഥാന": 6984,
      "പ്രയോഗ": 6985,
      "##ിക്കുന്നില്ല": 6986,
      "##ംഗലം": 6987,
      "വസ": 6988,
      "##ദ്ധ്യ": 6989,
      "പരമാവധി": 6990,
      "വരിക": 6991,
      "അഡ്മി": 6992,
      "മാർഗ": 6993,
      "പരിസര": 6994,
      "##ുമ്പോൾ": 6995,
      "##ത്തായി": 6996,
      "റില": 6997,
      "##ിരുന്ന": 6998,
      "ജനങ്ങൾ": 6999,
      "ഒപ്പം": 7000,
      "കുട്ടികളുടെ": 7001,
      "രാജ്യം": 7002,
      "##മാകുന്ന": 7003,
      "മണ്ഡലം": 7004,
      "ഏഴു": 7005,
      "വിവ": 7006,
      "അവര്ക്ക്": 7007,
      "##യിച്ചത്": 7008,
      "സഹോദരി": 7009,
      "സമ്മേളന": 7010,
      "##റിഞ്ഞ്": 7011,
      "##ത്തിെൻറ": 7012,
      "##ത്തിലായിരുന്നു": 7013,
      "നന്നായി": 7014,
      "ലാണ്": 7015,
      "##th": 7016,
      "മുന്നറിയിപ്പ്": 7017,
      "##നികുതി": 7018,
      "##കുട്ട": 7019,
      "പാകിസ്ത": 7020,
      "അത്യ": 7021,
      "വിവേ": 7022,
      "##ായാണ്": 7023,
      "##ത്തെക്കുറിച്ച്": 7024,
      "##ുപിട": 7025,
      "അധികം": 7026,
      "##യാസ": 7027,
      "വന്നത്": 7028,
      "തലസ്ഥാന": 7029,
      "##ക്കളെ": 7030,
      "ചടങ്ങിൽ": 7031,
      "വന്": 7032,
      "ഏതാനും": 7033,
      "കണ്ട്": 7034,
      "അഭിമുഖ": 7035,
      "##പോലും": 7036,
      "സ്റ്റേഷനിൽ": 7037,
      "##റ്റിക്": 7038,
      "പ്രവേശിപ്പിച്ചു": 7039,
      "##യര്": 7040,
      "##ങ്ങളിലാണ്": 7041,
      "എന്തി": 7042,
      "##പത്രം": 7043,
      "##യള": 7044,
      "ഉരുൾ": 7045,
      "സന്ദര്ശ": 7046,
      "അപകടത്തിൽ": 7047,
      "കൈകാര്യം": 7048,
      "ഇൻസ്റ്റിറ്റ്യൂ": 7049,
      "##ിയുമായി": 7050,
      "##ിക്കുമ്പോൾ": 7051,
      "##ിക്കണമെന്നും": 7052,
      "സൗജന്യ": 7053,
      "നിറഞ്ഞ": 7054,
      "##വിശ്വാസ": 7055,
      "വരുത്ത": 7056,
      "സേവനം": 7057,
      "പിയുടെ": 7058,
      "നിയമന": 7059,
      "പാട്ട": 7060,
      "പടിഞ്ഞാറ": 7061,
      "##ുവിൽ": 7062,
      "പിടിച്ചു": 7063,
      "രഹസ്യ": 7064,
      "രൂപവത്ക": 7065,
      "ത്തി": 7066,
      "##ക്കളുടെ": 7067,
      "ഉദാഹരണ": 7068,
      "രമേശ്": 7069,
      "കരാർ": 7070,
      "കിലോമീറ്റ": 7071,
      "##മൻ": 7072,
      "അസോസിയേഷൻ": 7073,
      "ശശി": 7074,
      "ഗോപി": 7075,
      "അരങ്ങ": 7076,
      "##ഡ്ജി": 7077,
      "##ാതു": 7078,
      "##ഷ്പ": 7079,
      "പ്രത": 7080,
      "വിരമ": 7081,
      "കർശന": 7082,
      "തൊഴിൽ": 7083,
      "സമസ്ത": 7084,
      "സ്ഥാനാർഥി": 7085,
      "രാജേഷ്": 7086,
      "##ുന്നതിനുള്ള": 7087,
      "##യിരുന്നത്": 7088,
      "നിർമാണം": 7089,
      "##ദു": 7090,
      "തേട": 7091,
      "പ്രകാര": 7092,
      "##പ്പുറം": 7093,
      "കുട്ടികളെ": 7094,
      "തന്നെയ": 7095,
      "നിർണ": 7096,
      "തീരുമാനമ": 7097,
      "മോഹൻ": 7098,
      "ബിസിന": 7099,
      "കാര്യത്തിൽ": 7100,
      "ഉച്ചക്ക്": 7101,
      "മുതലായ": 7102,
      "കിട്ടിയ": 7103,
      "കവ": 7104,
      "തിരുവനന്തപുരത്ത്": 7105,
      "ധാരാളം": 7106,
      "##ാധ": 7107,
      "##ഗുല": 7108,
      "ദൗ": 7109,
      "സ്വദേശിയായ": 7110,
      "വിതരണ": 7111,
      "പന്ത": 7112,
      "കാലഘട്ട": 7113,
      "##ത്സാഹ": 7114,
      "##മാല": 7115,
      "നാളെ": 7116,
      "##ാരോഗ": 7117,
      "കർഷ": 7118,
      "വിഭാഗത്തിൽ": 7119,
      "##മായിരുന്ന": 7120,
      "##നിയൻ": 7121,
      "ലളി": 7122,
      "സംയുക്ത": 7123,
      "കഞ്ച": 7124,
      "##മാലി": 7125,
      "##േഷന": 7126,
      "##ബ്ബ": 7127,
      "വിദ്യാര്ഥ": 7128,
      "##ൻറ": 7129,
      "##ഃഖ": 7130,
      "##വുമില്ല": 7131,
      "ശമ്പള": 7132,
      "##നാണ": 7133,
      "##ങ്ങളിലായി": 7134,
      "##തിനാല്": 7135,
      "##ഗ്ന": 7136,
      "##പ്പെടുത്താൻ": 7137,
      "രംഗത്ത്": 7138,
      "##വെച്ച": 7139,
      "നോക്കി": 7140,
      "##ത്തറ": 7141,
      "ത്ത": 7142,
      "##ോദ്യ": 7143,
      "##ഫിയ": 7144,
      "കേന്ദ്രസ": 7145,
      "ഡെസ്ക്": 7146,
      "ചാൻസ": 7147,
      "സ്ക്": 7148,
      "എളു": 7149,
      "##െടുക്കുന്ന": 7150,
      "ജനകീയ": 7151,
      "പിടികൂട": 7152,
      "##മുന്ന": 7153,
      "വടകര": 7154,
      "##ണര്": 7155,
      "എന": 7156,
      "##ന്തരം": 7157,
      "പ്രദർശ": 7158,
      "ഒമ്പത്": 7159,
      "താൽക്കാല": 7160,
      "##യുണ്ട": 7161,
      "പ്രയോ": 7162,
      "##ഭൂമി": 7163,
      "##ധികൃത": 7164,
      "##ചനം": 7165,
      "##ഷണം": 7166,
      "സിംഗ": 7167,
      "##മ്പോഴും": 7168,
      "കൗൺസില": 7169,
      "##വിഷ": 7170,
      "ഔദ്യോഗിക": 7171,
      "##യുമാണ്": 7172,
      "പറയാ": 7173,
      "പുനർ": 7174,
      "സെക്രട്ടേറിയ": 7175,
      "പങ്കുവെ": 7176,
      "പ്രകടിപ്പ": 7177,
      "കുട്ടിയെ": 7178,
      "##ഗോഡ്": 7179,
      "wha": 7180,
      "ആഴ്ച": 7181,
      "##ലിലെ": 7182,
      "പ്രചരിപ്പ": 7183,
      "മടങ്ങ": 7184,
      "##മൊരു": 7185,
      "ക്ഷേമ": 7186,
      "ഡെപ്യൂട്ടി": 7187,
      "അംഗീകാരം": 7188,
      "സംവര": 7189,
      "സുധാകരൻ": 7190,
      "വധശ്രമക്കേസ്": 7191,
      "##എൽ": 7192,
      "യൂണിയ": 7193,
      "നാലാം": 7194,
      "തുടങ്ങിയവർ": 7195,
      "##പ്പൻ": 7196,
      "പങ്കെടുത്ത": 7197,
      "ട്രെയിൻ": 7198,
      "കാർഷിക": 7199,
      "##ില്ലി": 7200,
      "എന്നിവയുടെ": 7201,
      "പന്നു": 7202,
      "താമസിക്കുന്ന": 7203,
      "വീട്ടില്": 7204,
      "ടെലി": 7205,
      "ആൾ": 7206,
      "മാറിയ": 7207,
      "##ക്കുന്നുണ്ട്": 7208,
      "കറ": 7209,
      "##ുന്നതു": 7210,
      "##യാല്": 7211,
      "തട്ടിയ": 7212,
      "##ർണ": 7213,
      "ഏത്": 7214,
      "മരുന്ന": 7215,
      "##ിൾ": 7216,
      "##രിക്കുക": 7217,
      "കേന്ദ്രത്തിനും": 7218,
      "##ഴിഞ്ഞു": 7219,
      "##ജാതി": 7220,
      "വൈറസ്": 7221,
      "ശ്രദ്ധേയ": 7222,
      "അശ": 7223,
      "നിത്യ": 7224,
      "വേണു": 7225,
      "ഫേസ്ബുക്ക്": 7226,
      "##ർത്ഥ": 7227,
      "##മാറ": 7228,
      "രഞ്": 7229,
      "കൗൺസിൽ": 7230,
      "##ിക്കെതിരെ": 7231,
      "കഴിഞ്ഞ്": 7232,
      "തനിക്ക്": 7233,
      "തുടർന്ന": 7234,
      "##തവണ": 7235,
      "നിന്നെ": 7236,
      "നൃ": 7237,
      "ജനസംഖ്യ": 7238,
      "ന്റെ": 7239,
      "##ധികാരി": 7240,
      "##ിലോ": 7241,
      "mail": 7242,
      "ക്രൂര": 7243,
      "##റ്റോ": 7244,
      "സിസ്റ്റ": 7245,
      "##സിനു": 7246,
      "നൽകുന്നത്": 7247,
      "രേഖകൾ": 7248,
      "കിലോ": 7249,
      "ജേ": 7250,
      "##്യു": 7251,
      "കൂട്ടിച്ചേർ": 7252,
      "സെമി": 7253,
      "##വലിനും": 7254,
      "whats": 7255,
      "അവനെ": 7256,
      "whatsapp": 7257,
      "##സിസ്": 7258,
      "ന്യൂഡൽഹി": 7259,
      "##ജൻ": 7260,
      "അർഹ": 7261,
      "##ദ്ദീ": 7262,
      "സജി": 7263,
      "##ക്കുകയായിരുന്നു": 7264,
      "വികസിപ്പ": 7265,
      "ഓട്ടോ": 7266,
      "സഖ": 7267,
      "ഡോവലിനും": 7268,
      "ഒടുവിൽ": 7269,
      "ഫണ്ട്": 7270,
      "##ുകളിലേക്ക്": 7271,
      "##താക": 7272,
      "ശാര": 7273,
      "ഇക്കാര്യത്തിൽ": 7274,
      "സസ്യ": 7275,
      "##ഷ്യല്": 7276,
      "സാമൂഹ്യ": 7277,
      "##ാണ്ഡ": 7278,
      "ഗൂഢാലോചന": 7279,
      "ബാലകൃഷ്ണ": 7280,
      "നേതൃത്വത്തിലുള്ള": 7281,
      "##യോട്": 7282,
      "##ജോ": 7283,
      "ഓസ്ട്രേലിയ": 7284,
      "അദ": 7285,
      "സിങ്": 7286,
      "പരിഷ്": 7287,
      "അവളുടെ": 7288,
      "##ഗ്രി": 7289,
      "എഞ്ച": 7290,
      "##ക്കണം": 7291,
      "സമൂഹമാധ്യമ": 7292,
      "അയാള": 7293,
      "##ാതിരുന്ന": 7294,
      "##പ്ത": 7295,
      "##ങ്ങളിലൂടെ": 7296,
      "രാധാക": 7297,
      "പൂർണമായും": 7298,
      "##വനും": 7299,
      "കർഷക": 7300,
      "രാമചന്ദ്ര": 7301,
      "പീഡന": 7302,
      "##ക്കുമ്പോൾ": 7303,
      "ഏതു": 7304,
      "സമര്പ്പ": 7305,
      "ആയുധ": 7306,
      "##രായി": 7307,
      "മാത്യു": 7308,
      "al": 7309,
      "കയറ": 7310,
      "##യേറ്റ": 7311,
      "തിയ": 7312,
      "പ്രക്ഷ": 7313,
      "പുത്ത": 7314,
      "ഫീ": 7315,
      "##ൃഹ": 7316,
      "tag": 7317,
      "##ണ്ടർ": 7318,
      "മണിയ": 7319,
      "##ബെ": 7320,
      "##മൂലം": 7321,
      "##ശങ്ക": 7322,
      "ദുരിതാ": 7323,
      "##ടിച്ചു": 7324,
      "ആരോപിച്ചു": 7325,
      "രാജേന്ദ്ര": 7326,
      "ട്രെയിനിൽ": 7327,
      "കേട്ട": 7328,
      "ഉൾപ്പെടുത്തി": 7329,
      "സമുദ്ര": 7330,
      "##ൃഷ്ണൻ": 7331,
      "ഡബ്": 7332,
      "##മെന്ററി": 7333,
      "##പരിശ": 7334,
      "##ഴുന്ന": 7335,
      "##ഴിയ": 7336,
      "##ീർഘ": 7337,
      "ഏരിയ": 7338,
      "സ്മാര": 7339,
      "പ്രസിദ്ധീകരിച്ച": 7340,
      "അസ്": 7341,
      "##ൂട്ടി": 7342,
      "##പ്പൊ": 7343,
      "അധ്യക്ഷൻ": 7344,
      "കിട്ടി": 7345,
      "##േര": 7346,
      "കഴിവ": 7347,
      "##ക്കുവ": 7348,
      "ശിപാർശ": 7349,
      "അനധികൃത": 7350,
      "##്മെന്റ": 7351,
      "##ടുത്തു": 7352,
      "##ിച്ചിരിക്കുന്നു": 7353,
      "സിൽ": 7354,
      "##തകൾ": 7355,
      "##പ്രവര്ത്ത": 7356,
      "അതിർത്തി": 7357,
      "മെയ്": 7358,
      "തിരി": 7359,
      "##ഷീ": 7360,
      "ഭർത്താവ്": 7361,
      "ലും": 7362,
      "##ംഗ്ല": 7363,
      "ആവർത്തി": 7364,
      "##റ്റുകൾ": 7365,
      "കാലയള": 7366,
      "##ോർട്ട്": 7367,
      "ഓഫിസ്": 7368,
      "പ്രൊഫ": 7369,
      "അണക്കെ": 7370,
      "ബിജു": 7371,
      "പലപ്പോഴും": 7372,
      "##ത്തിനിട": 7373,
      "ഹെൽ": 7374,
      "ഫോണ": 7375,
      "##വർഗ": 7376,
      "സെമ": 7377,
      "സഹക": 7378,
      "ബിൽ": 7379,
      "മാതാവ്": 7380,
      "##ിപ്പിക്ക": 7381,
      "ശശ": 7382,
      "##ന്ദു": 7383,
      "##ുമെ": 7384,
      "##മ്മാ": 7385,
      "യൂണിവേഴ്സിറ്റി": 7386,
      "ദുരിതാശ്വാസ": 7387,
      "കാമറ": 7388,
      "അടിസ്ഥാനത്തിലാണ്": 7389,
      "ജനങ്ങളുടെ": 7390,
      "ആത്മാ": 7391,
      "ദൂര": 7392,
      "കൃത്യമായ": 7393,
      "ക്രിസ്ത്യ": 7394,
      "നിങ്ങള്ക്ക്": 7395,
      "ആസൂ": 7396,
      "ജോര്ജ്": 7397,
      "വാക്സി": 7398,
      "##പുല": 7399,
      "tags": 7400,
      "സിബി": 7401,
      "ജനനം": 7402,
      "വർദ്ധ": 7403,
      "മക്കൾ": 7404,
      "സത്യം": 7405,
      "സമഗ്ര": 7406,
      "സംസാരിക്കുകയായിരുന്നു": 7407,
      "കൊല്ലപ്പെട്ട": 7408,
      "##നിറ": 7409,
      "പതിന": 7410,
      "ലൂ": 7411,
      "എറണാകുള": 7412,
      "ഉദ്യോഗസ്ഥർ": 7413,
      "ചതുര": 7414,
      "വര്ഷം": 7415,
      "നാഷണൽ": 7416,
      "വരുന്നത്": 7417,
      "##റിയിൽ": 7418,
      "സമീപത്തെ": 7419,
      "മുള": 7420,
      "ശിവൻ": 7421,
      "ദീർഘ": 7422,
      "വിഡിയോ": 7423,
      "സംസ്കാര": 7424,
      "ദുരിത": 7425,
      "സൗകര്യമൊരു": 7426,
      "കൂട്ടിച്ചേർത്തു": 7427,
      "##ന്മാരും": 7428,
      "കൃത്യമായി": 7429,
      "ഏറ്റെടുക്ക": 7430,
      "##ജിസ്ട്ര": 7431,
      "##ഡിപി": 7432,
      "##നമാണ്": 7433,
      "ലൈഫ്": 7434,
      "സിനിമാ": 7435,
      "##വള": 7436,
      "ഭാവ": 7437,
      "##യെന്ന": 7438,
      "##റോളം": 7439,
      "മറിക": 7440,
      "ജീവൻ": 7441,
      "ഡെസ്ക്updated": 7442,
      "##and": 7443,
      "ആനന്ദ": 7444,
      "വിഭ": 7445,
      "##ാനിയ": 7446,
      "റിപ്പോർട്ട": 7447,
      "വരുത്തി": 7448,
      "കൈമാറി": 7449,
      "##ek": 7450,
      "##ളില്": 7451,
      "തലശ്ശേരി": 7452,
      "കോളജിൽ": 7453,
      "നന്ദി": 7454,
      "##യൽ": 7455,
      "##കെ": 7456,
      "##ര്പ": 7457,
      "ചങ്ങ": 7458,
      "##un": 7459,
      "##സ്വം": 7460,
      "##ര്മ": 7461,
      "പ്രകാ": 7462,
      "ദിവസവും": 7463,
      "പ്രദേശത്ത്": 7464,
      "വരി": 7465,
      "##ഡൻ": 7466,
      "##ൈൽ": 7467,
      "##ീവ": 7468,
      "തൃക്ക": 7469,
      "അംബ": 7470,
      "##ലിക": 7471,
      "##ുകാര്": 7472,
      "തിരക്കഥ": 7473,
      "ഗൗര": 7474,
      "##ിക്കൊണ്ട": 7475,
      "ബ്ല": 7476,
      "കമീഷണർ": 7477,
      "##ൾഡ്": 7478,
      "മാധ്യമപ്രവർത്ത": 7479,
      "ഇന്നും": 7480,
      "അനുവദിച്ച": 7481,
      "കട്ട": 7482,
      "സന്ന": 7483,
      "സ്പെഷൽ": 7484,
      "##തയുടെ": 7485,
      "##വിദ്യാഭ്യാ": 7486,
      "ഹിന്ദി": 7487,
      "##ാസ്ത്രം": 7488,
      "##സൽ": 7489,
      "##യിച്ച്": 7490,
      "സർക്കാരിന്റെ": 7491,
      "തന": 7492,
      "സര്വകലാശാല": 7493,
      "##വാടി": 7494,
      "##ക്യം": 7495,
      "പഞ്ചായത്ത": 7496,
      "മോട്ട": 7497,
      "##യാക്കി": 7498,
      "പാന": 7499,
      "മണ്ണി": 7500,
      "സവിശേഷ": 7501,
      "##വാദം": 7502,
      "കാട്ടാന": 7503,
      "##ിട്ട്": 7504,
      "ദുർ": 7505,
      "യൂണി": 7506,
      "വരുമാന": 7507,
      "ശര": 7508,
      "##ജാ": 7509,
      "##ുടമ": 7510,
      "ക്വാ": 7511,
      "##ത്തുന്നത്": 7512,
      "അവഗണ": 7513,
      "സമർപ്പിച്ച": 7514,
      "താപ": 7515,
      "##ദണ്ഡ": 7516,
      "##ായകൻ": 7517,
      "##റ്റിന്റെ": 7518,
      "##ംഗളൂരു": 7519,
      "ശാസ്ത്രീയ": 7520,
      "##ുന്നുണ്ട": 7521,
      "തുറന്നു": 7522,
      "എയ്": 7523,
      "##സ്കോ": 7524,
      "##ാരോഗ്യ": 7525,
      "##ങ്ങിനെ": 7526,
      "പരിഹാര": 7527,
      "സംവിധായക": 7528,
      "##തായാണ്": 7529,
      "ഭവന": 7530,
      "പ്രതിപക്ഷം": 7531,
      "പേരില്": 7532,
      "##േജി": 7533,
      "സ്മ": 7534,
      "##ിഫ": 7535,
      "കല്പ": 7536,
      "ദേശീയോദ്യ": 7537,
      "അഫ്": 7538,
      "##ബാദ്": 7539,
      "കഠിന": 7540,
      "##ില്പ": 7541,
      "സർക്കാറ": 7542,
      "##ദേവ": 7543,
      "കടന്നു": 7544,
      "വിഴിഞ്ഞ": 7545,
      "നാഥ": 7546,
      "##ത്തിനകം": 7547,
      "##ഹൃദ": 7548,
      "കീഴിൽ": 7549,
      "മുത്ത": 7550,
      "##മാണു": 7551,
      "വച്ച്": 7552,
      "##ാംശ": 7553,
      "കുരു": 7554,
      "ആലോച": 7555,
      "ഇരട്ട": 7556,
      "വാണി": 7557,
      "വേർ": 7558,
      "##ുകെ": 7559,
      "അട്ട": 7560,
      "എവിട": 7561,
      "ഒളിവ": 7562,
      "##ക്കാന": 7563,
      "##രാണ്": 7564,
      "രണ്ടുപേ": 7565,
      "സാധ്യ": 7566,
      "ജഡ്ജി": 7567,
      "നാശ": 7568,
      "മത്സരം": 7569,
      "പ്രതികരണ": 7570,
      "പാപ": 7571,
      "##താര": 7572,
      "കാണുന്ന": 7573,
      "പിന്നാല": 7574,
      "##ചിത്ര": 7575,
      "ലഡ": 7576,
      "ജനങ്ങളെ": 7577,
      "ആഴ": 7578,
      "രവീ": 7579,
      "##േരള": 7580,
      "##റ്റിന്": 7581,
      "പ്രത്യക്ഷ": 7582,
      "കുറച്ചു": 7583,
      "##രെയും": 7584,
      "##നിന്നാണ്": 7585,
      "ദ്വീപ": 7586,
      "##ൊപ്പ": 7587,
      "##േക്കാണ്": 7588,
      "ഏറ": 7589,
      "ഗ്രാം": 7590,
      "##യാണെന്നും": 7591,
      "##ംപ": 7592,
      "##ിക്കണമെന്ന": 7593,
      "എന്നിവിടങ്ങളിൽ": 7594,
      "പുരോഗമ": 7595,
      "ദേവസ്വം": 7596,
      "##ണങ്ങൾ": 7597,
      "##ങ്ങളുണ്ട്": 7598,
      "ഇതിനിടെ": 7599,
      "##ഷറ": 7600,
      "ബിരുദം": 7601,
      "മനസ്സിലാക്ക": 7602,
      "ഓടിക്ക": 7603,
      "കിടക്ക": 7604,
      "സൊസൈ": 7605,
      "ആൽ": 7606,
      "വളര": 7607,
      "പ്രത്യേകം": 7608,
      "##പെട്ട": 7609,
      "വാസ": 7610,
      "##മ്പാ": 7611,
      "പൊലീസിൽ": 7612,
      "സംഘർഷ": 7613,
      "പൂർത്തിയാക്കി": 7614,
      "പൂര്ത്തിയ": 7615,
      "എട്ടു": 7616,
      "കാലാവ": 7617,
      "##ിക്കാനാണ്": 7618,
      "സൂചിപ്പ": 7619,
      "വിയ": 7620,
      "##ച്ചില": 7621,
      "ചിറ": 7622,
      "ണ്ട": 7623,
      "രസ": 7624,
      "##സമയ": 7625,
      "അമിത്": 7626,
      "ചേര്": 7627,
      "പകു": 7628,
      "##ദാസ്": 7629,
      "##ർക്കെതിരെ": 7630,
      "ജാമ്യ": 7631,
      "##െടെ": 7632,
      "ഇരുപ": 7633,
      "ശമ്പളം": 7634,
      "അപമാന": 7635,
      "സാഹചര്യം": 7636,
      "മനസ്": 7637,
      "ആദിവാസ": 7638,
      "നഴ്": 7639,
      "##നിര്": 7640,
      "##ത്തിയാണ്": 7641,
      "വല്ല": 7642,
      "##ാക്കോ": 7643,
      "##ണിന്റെ": 7644,
      "##ന്യാ": 7645,
      "##ത്തിന്െറ": 7646,
      "##ക്ടറുടെ": 7647,
      "കാന": 7648,
      "ന്യൂനപക്ഷ": 7649,
      "കാറ്റ": 7650,
      "##ക്കെതിര": 7651,
      "##കള്ക്ക്": 7652,
      "##ുവാ": 7653,
      "വേദന": 7654,
      "##ലിശ": 7655,
      "വെളു": 7656,
      "നിലവില്": 7657,
      "അലർ": 7658,
      "ഫൈന": 7659,
      "വയനാ": 7660,
      "##മാം": 7661,
      "##ിക്കുമെന്നും": 7662,
      "നാടി": 7663,
      "##മാർക്ക്": 7664,
      "മജിസ്ട്ര": 7665,
      "##ഡിന്": 7666,
      "ഭാവി": 7667,
      "##വിവര": 7668,
      "##ികു": 7669,
      "##ുണ്ടാകും": 7670,
      "വെങ്ക": 7671,
      "എന്നിവരെ": 7672,
      "##ുകൂടിയ": 7673,
      "##ീരി": 7674,
      "##ര്ക്ക്": 7675,
      "വിഷ്ണു": 7676,
      "വേദി": 7677,
      "ഉൾപ്പെടുന്നു": 7678,
      "യേശു": 7679,
      "കണ്": 7680,
      "അട്ടി": 7681,
      "സന്ദേശ": 7682,
      "പിടിയിലായത്": 7683,
      "സുധ": 7684,
      "താന്": 7685,
      "പുക": 7686,
      "നവക": 7687,
      "##രോഗ": 7688,
      "സിംഗ്": 7689,
      "നോക്ക": 7690,
      "കോടിയേരി": 7691,
      "##തിരേ": 7692,
      "കൂടിയാണ്": 7693,
      "##ന്മാരെ": 7694,
      "ഇംഗ്ല": 7695,
      "പൗ": 7696,
      "##യില്ലാത്ത": 7697,
      "ഓഫീസ": 7698,
      "പൊട്ടി": 7699,
      "ചെയ്യുകയായിരുന്നു": 7700,
      "##ഡറ": 7701,
      "##ന്ത്യാ": 7702,
      "##ുവീണ്": 7703,
      "##നാമ": 7704,
      "ചാമ്പ": 7705,
      "ഓഡി": 7706,
      "മുല്ല": 7707,
      "ഉയർത്തി": 7708,
      "കോടിയുടെ": 7709,
      "പച്ചക്ക": 7710,
      "##ാർട്ട": 7711,
      "##ക്കിടെ": 7712,
      "##വെച്ച്": 7713,
      "ചെലവഴ": 7714,
      "ഒരുക്കി": 7715,
      "അന്തരിച്ചു": 7716,
      "ചെലവ്": 7717,
      "പ്രധാനമായും": 7718,
      "ചതുരശ്ര": 7719,
      "നവകേരള": 7720,
      "##ഫർ": 7721,
      "ഇപ്പോഴ": 7722,
      "ബാന": 7723,
      "വശ": 7724,
      "##സഞ്ച": 7725,
      "##പ്പന": 7726,
      "നീല": 7727,
      "കഴിയാത്ത": 7728,
      "പേജ": 7729,
      "എളുപ്പ": 7730,
      "##ുണ്ടായത്": 7731,
      "ജോസ്": 7732,
      "##തുട": 7733,
      "##്ള": 7734,
      "വീട്ടിലെ": 7735,
      "##ോഷ്": 7736,
      "ചെയ്യുകയും": 7737,
      "കൺവീന": 7738,
      "##ോപ": 7739,
      "വാര്ത്ത": 7740,
      "രംഗത്തെത്തി": 7741,
      "വ്യാപകമായി": 7742,
      "ദുഃഖ": 7743,
      "കുത്ത": 7744,
      "ആഗോള": 7745,
      "##പാല": 7746,
      "പ്രാപ": 7747,
      "ബഹി": 7748,
      "##ദാർ": 7749,
      "പൊട്ട": 7750,
      "ട്രെയിന": 7751,
      "കേസെടുത്തു": 7752,
      "നോർ": 7753,
      "കേരളത്തില്": 7754,
      "##ത്തിനുശേഷം": 7755,
      "##ാണി": 7756,
      "കോടതി": 7757,
      "ആക്രമിച്ച": 7758,
      "##ജീവിത": 7759,
      "നേരിടുന്ന": 7760,
      "ബന്ധുക്കൾ": 7761,
      "നവംബ": 7762,
      "##ഭാ": 7763,
      "അതെ": 7764,
      "അന്നത്തെ": 7765,
      "ഫീസ്": 7766,
      "##ത്രെ": 7767,
      "സുന്ദ": 7768,
      "അടച്ച": 7769,
      "അയച്ച": 7770,
      "##നാട്ടിലെ": 7771,
      "അയാൾ": 7772,
      "തറ": 7773,
      "##റങ്ങി": 7774,
      "വാർഷിക": 7775,
      "##ത്തിൻറെ": 7776,
      "ഖാൻ": 7777,
      "റഷ്യ": 7778,
      "##വറ": 7779,
      "##രുക": 7780,
      "##ഭം": 7781,
      "##ദിനം": 7782,
      "ഷാജ": 7783,
      "താന": 7784,
      "ബാക്കി": 7785,
      "ജുഡീ": 7786,
      "##ഴുപ്പ്": 7787,
      "നാന": 7788,
      "ദൃശ്യങ്ങൾ": 7789,
      "##ക്കിടയിൽ": 7790,
      "എന്നായിരുന്നു": 7791,
      "സർക്കാറിന്": 7792,
      "രവീന്ദ്ര": 7793,
      "##മുട": 7794,
      "മൂല്യ": 7795,
      "തുടരുകയാണ്": 7796,
      "പ്രതികരണം": 7797,
      "രചന": 7798,
      "നിർദ്ദേശ": 7799,
      "മാനദണ്ഡ": 7800,
      "തേടിയ": 7801,
      "പ്രഖ്യാപിച്ച": 7802,
      "ബാധ്യത": 7803,
      "പൊലീ": 7804,
      "സെൻട്ര": 7805,
      "കീഴില": 7806,
      "ആവി": 7807,
      "##ക്കയ": 7808,
      "##പുഴ": 7809,
      "അഡീഷ": 7810,
      "എട": 7811,
      "##പ്രകാര": 7812,
      "നല്കുന്ന": 7813,
      "ഉണ": 7814,
      "അറിയിച്ചത്": 7815,
      "##ുവിനെ": 7816,
      "വർക്ക": 7817,
      "##ഭാവിക": 7818,
      "##ട്ടിന്": 7819,
      "ഉടമസ്ഥ": 7820,
      "##ുകയുണ്ടായി": 7821,
      "റെഡ്": 7822,
      "മുകളിൽ": 7823,
      "##ക്കാരും": 7824,
      "ഹൈദ": 7825,
      "##ച്ചും": 7826,
      "ഉള്പ്പെട": 7827,
      "ഹജ്ജ്": 7828,
      "##ak": 7829,
      "##െന്നായിരുന്നു": 7830,
      "പ്രകടന": 7831,
      "##ാൻഡ": 7832,
      "മുഖേന": 7833,
      "##ട്സ്": 7834,
      "##ദ്ദീൻ": 7835,
      "കമ്യൂണി": 7836,
      "സർവീസ്": 7837,
      "##കരമായി": 7838,
      "##ുമുട്ട": 7839,
      "സ്റ്റേഡിയ": 7840,
      "##സുഖ": 7841,
      "ഗുരുവ": 7842,
      "സീനിയർ": 7843,
      "എക്സ്പ്രസ്": 7844,
      "##വായ": 7845,
      "കുറച്ച്": 7846,
      "##രാഷ്ട്ര": 7847,
      "വിളിച്ച": 7848,
      "അതിക്രമ": 7849,
      "##പ്പെടും": 7850,
      "##ത്മക": 7851,
      "ഒന്നു": 7852,
      "##ാന്റ്": 7853,
      "##ണ്ഡിത": 7854,
      "ടെസ്റ്റ്": 7855,
      "സ്വരൂപ": 7856,
      "##ലാമ": 7857,
      "##രഹിത": 7858,
      "തെറ്റി": 7859,
      "സൗദി": 7860,
      "പശ്ചിമ": 7861,
      "പോരാട്ട": 7862,
      "br": 7863,
      "പൂർണ്ണ": 7864,
      "ഓർമ": 7865,
      "അത്തരം": 7866,
      "##യുന്ന": 7867,
      "##മട": 7868,
      "##ുകയായിരുന്ന": 7869,
      "##നഗ": 7870,
      "നിങ്ങള": 7871,
      "പൊന്ന": 7872,
      "##്യമല്ല": 7873,
      "##ക്കാർക്ക്": 7874,
      "ഉരുൾപൊ": 7875,
      "##ക്കാനുള്ള": 7876,
      "##ളിന്റെ": 7877,
      "അപ്പോള്": 7878,
      "ഇരി": 7879,
      "##വരിൽ": 7880,
      "##ീപി": 7881,
      "കൊണ്ടുവര": 7882,
      "##ൾപ്പെടെ": 7883,
      "വ്യക്തമായ": 7884,
      "രാജ്യത്തിന്റെ": 7885,
      "സംഘടിപ്പിച്ച": 7886,
      "റിമാൻഡ്": 7887,
      "ലിമി": 7888,
      "ഫിലിം": 7889,
      "കണ്ടത്": 7890,
      "##മുണ്ടായി": 7891,
      "##ാകുന്ന": 7892,
      "##യുമായ": 7893,
      "വസ്ത്ര": 7894,
      "രാജിവെ": 7895,
      "അവാർ": 7896,
      "ഹാജരാക": 7897,
      "##ാരും": 7898,
      "അതാണ്": 7899,
      "കണക്ക്": 7900,
      "നിർമ്മാണ": 7901,
      "ജലീ": 7902,
      "ജമ്മ": 7903,
      "##ബിയ": 7904,
      "##ഭേദ": 7905,
      "കൊണ്ടുവ": 7906,
      "കരുതി": 7907,
      "അസിസ്റ്റന്റ്": 7908,
      "##േണ്ടതി": 7909,
      "വർഗീയ": 7910,
      "ജയരാജൻ": 7911,
      "##ലാൽ": 7912,
      "##ത്തിരി": 7913,
      "##ത്തായ": 7914,
      "ചിലർ": 7915,
      "ക്യാപ്റ്റ": 7916,
      "##നിടെയാണ്": 7917,
      "വരുമാനം": 7918,
      "മോട്ടോർ": 7919,
      "ഓഫീസർ": 7920,
      "##കരെ": 7921,
      "കൊടുത്ത": 7922,
      "##ഴും": 7923,
      "##ര്ഷ": 7924,
      "ആകർ": 7925,
      "അനുബന്ധ": 7926,
      "ഗോവിന്ദൻ": 7927,
      "##പ്പെടുത്തുന്ന": 7928,
      "അപ്": 7929,
      "##മയ": 7930,
      "പറഞ്ഞിരുന്നു": 7931,
      "വ്യാപാരി": 7932,
      "ആംബ": 7933,
      "പാരി": 7934,
      "##ോഗ്രാ": 7935,
      "##ംഗം": 7936,
      "കവർ": 7937,
      "##ഷനൽ": 7938,
      "##തിയിൽ": 7939,
      "യും": 7940,
      "ചാണ്ടി": 7941,
      "ക്രൈംബ്രാഞ്ച്": 7942,
      "##ല്ലാ": 7943,
      "പദ്ധതികൾ": 7944,
      "##കളെയും": 7945,
      "രണ്ടും": 7946,
      "മോശ": 7947,
      "പാക്കി": 7948,
      "##ംഗല": 7949,
      "പൊലീസും": 7950,
      "തിരുപ്പതി": 7951,
      "മേള": 7952,
      "മുരളീധരൻ": 7953,
      "##ഭാര": 7954,
      "വരെയും": 7955,
      "ഒന്നര": 7956,
      "ഔദ്യോഗ": 7957,
      "ഹു": 7958,
      "വിജയി": 7959,
      "ആഹ്": 7960,
      "##ഡു": 7961,
      "പ്രക്രിയ": 7962,
      "##വേള": 7963,
      "രണ്ടാമ": 7964,
      "സൈബർ": 7965,
      "##ത്തിയാക": 7966,
      "##റിഞ്ഞു": 7967,
      "ചേർത്ത": 7968,
      "##വിദ്യാഭ്യാസ": 7969,
      "ഉപദേശ": 7970,
      "ബെഞ്ച്": 7971,
      "കൊച്ച": 7972,
      "പലിശ": 7973,
      "##കളുടെയും": 7974,
      "വിജ്ഞാപ": 7975,
      "##പ്പിച്ച്": 7976,
      "പങ്കാള": 7977,
      "##പ്പെട്ടിട്ടുണ്ട്": 7978,
      "##വസ്തു": 7979,
      "നൽകിയിട്ടുണ്ട്": 7980,
      "കേസുകൾ": 7981,
      "പരിശീലന": 7982,
      "തള": 7983,
      "##ൻപ": 7984,
      "##ഭ്": 7985,
      "##ജീവി": 7986,
      "തിരുവല്ല": 7987,
      "##ൊന്ന്": 7988,
      "##െന്നി": 7989,
      "അംഗീകരിച്ച": 7990,
      "കോടതിയെ": 7991,
      "##ത്രിക": 7992,
      "ഇതുസംബന്ധ": 7993,
      "##ാതിരിക്ക": 7994,
      "ക്ലാസ": 7995,
      "##ദ്യം": 7996,
      "##ക്കെതിരായ": 7997,
      "ചിത്രങ്ങൾ": 7998,
      "##ങ്ങാടി": 7999,
      "റെഗുല": 8000,
      "രാജി": 8001,
      "പ്രവാസികൾക്ക്": 8002,
      "തൈ": 8003,
      "നദി": 8004,
      "പബ്ലിക്": 8005,
      "പോവ": 8006,
      "സൗകര്യം": 8007,
      "മമ്മ": 8008,
      "വിഹിത": 8009,
      "##രുതെന്ന്": 8010,
      "പ്രവര്ത്തന": 8011,
      "##തുപോലെ": 8012,
      "കുട്ടിയുടെ": 8013,
      "കന്ന": 8014,
      "റണ്": 8015,
      "അസം": 8016,
      "##ന്യം": 8017,
      "യുഎ": 8018,
      "സപ്ലി": 8019,
      "ശത്": 8020,
      "##സ്റ്റിക്": 8021,
      "ഓം": 8022,
      "ത്രി": 8023,
      "ആച": 8024,
      "##ോണ": 8025,
      "തിള": 8026,
      "പ്രമേയം": 8027,
      "##യായിരുന്ന": 8028,
      "##ഫലം": 8029,
      "വില്ലേജ്": 8030,
      "വരാ": 8031,
      "##ശ്ശിക": 8032,
      "##ത്തോടെ": 8033,
      "##ാവുന്നതാണ്": 8034,
      "കായ": 8035,
      "##ിവെള്ള": 8036,
      "##നാശ": 8037,
      "സംഭവിച്ച": 8038,
      "ഓടി": 8039,
      "പത്ത്": 8040,
      "##ത്ത്വ": 8041,
      "##പരിശോധ": 8042,
      "##പദ്ധ": 8043,
      "സ്ഥലത്തെത്തി": 8044,
      "##ാന്റെ": 8045,
      "കാൽ": 8046,
      "പാലം": 8047,
      "##േതര": 8048,
      "സർട്ടിഫിക്കറ്റ്": 8049,
      "##മിന്": 8050,
      "കുതി": 8051,
      "കാസര്ഗോഡ്": 8052,
      "മെഡി": 8053,
      "വളർച്ച": 8054,
      "ശിഷ്യ": 8055,
      "പരിക്കേറ്റു": 8056,
      "##നോട്ട": 8057,
      "ഭൂനികുതി": 8058,
      "ഉറപ്പുവ": 8059,
      "ജീവനക്കാരുടെ": 8060,
      "ആന്ധ": 8061,
      "ഫ്ല": 8062,
      "ജോല": 8063,
      "സെന്റർ": 8064,
      "##ഭുത": 8065,
      "##കൊണ്ടു": 8066,
      "##ഫറ": 8067,
      "ഇന്നത്തെ": 8068,
      "##ങ്കര": 8069,
      "യുവാവിനെ": 8070,
      "നിൽക്കുന്ന": 8071,
      "##ുകിട": 8072,
      "തുടരുന്ന": 8073,
      "ഷാജി": 8074,
      "ഈശ്വര": 8075,
      "ഓടെ": 8076,
      "ഓപ്പറ": 8077,
      "കടക്ക": 8078,
      "സമാപ": 8079,
      "ടിക്കറ്റ്": 8080,
      "##സ്തവ": 8081,
      "പർ": 8082,
      "##മാത്രം": 8083,
      "പ്രസിദ്ധീകരിച്ചു": 8084,
      "##ീണ": 8085,
      "ഇൻസ്റ്റിറ്റ്യൂട്ട്": 8086,
      "##ാക്കുകയും": 8087,
      "അനുസരിച്ച്": 8088,
      "##ചല": 8089,
      "##റിന": 8090,
      "പട്ടണ": 8091,
      "അഴ": 8092,
      "നക്ഷ": 8093,
      "##ശ്വ": 8094,
      "ബോധ്യ": 8095,
      "തിരഞ്ഞെടുപ്പ്": 8096,
      "ആംബുല": 8097,
      "വെളിച്ച": 8098,
      "അടയ്ക്കാൻ": 8099,
      "എന്തെങ്കിലും": 8100,
      "##മായിരിക്കും": 8101,
      "മാർക്ക": 8102,
      "സോഫ്റ്റ്": 8103,
      "##്രാജ": 8104,
      "വിപുല": 8105,
      "##ാടും": 8106,
      "##്യമില്ല": 8107,
      "##താണെന്ന്": 8108,
      "അടക്ക": 8109,
      "ഇന്ധ": 8110,
      "ടിഡിപി": 8111,
      "##ാറുണ്ടെന്ന്": 8112,
      "ഇടതുപക്ഷ": 8113,
      "ഡിവിഷൻ": 8114,
      "ക്യാമറ": 8115,
      "ഗുണ്ട": 8116,
      "##ിയം": 8117,
      "##ജ്ഞാന": 8118,
      "ലൈൻ": 8119,
      "ആദ്യകാല": 8120,
      "നമ്മൾ": 8121,
      "റിപ്പോർട്ടിൽ": 8122,
      "##നിവ": 8123,
      "##ിച്ചിരിക്കുന്ന": 8124,
      "##േക്കാം": 8125,
      "ഉടന്": 8126,
      "##ഡെ": 8127,
      "##പൂ": 8128,
      "മാധ്യമങ്ങളോട്": 8129,
      "അഭിപ്രായം": 8130,
      "കസ്റ്റഡിയിൽ": 8131,
      "##ികളെയും": 8132,
      "##ോടുള്ള": 8133,
      "##ിയായിരുന്നു": 8134,
      "കുടിശ്ശിക": 8135,
      "##പിള്ള": 8136,
      "ചേർന്നു": 8137,
      "വിമർശന": 8138,
      "നിലമ്പ": 8139,
      "മോഷ്ട": 8140,
      "##ments": 8141,
      "##പ്പാറ": 8142,
      "##െയായി": 8143,
      "പ്രഥ": 8144,
      "##ിതം": 8145,
      "ശ്രീലങ്ക": 8146,
      "സെൻട്രൽ": 8147,
      "##ികളില്": 8148,
      "##ക്കിന്റെ": 8149,
      "തെരുവ": 8150,
      "അംഗങ്ങൾ": 8151,
      "പാരമ്പ": 8152,
      "ww": 8153,
      "മ്യൂസിയ": 8154,
      "ആരംഭിച്ചത്": 8155,
      "ചുമത്തി": 8156,
      "വെല്ലുവിള": 8157,
      "സൗകര്യമൊരുക്കും": 8158,
      "സാര": 8159,
      "##ഹാസ": 8160,
      "പ്രി": 8161,
      "പുത്ര": 8162,
      "പിന്": 8163,
      "സ്വീകരിച്ചു": 8164,
      "പ്രധാനപ്പെട്ട": 8165,
      "പുറത്തിറങ്ങിയ": 8166,
      "##ാണുള്ളത്": 8167,
      "ദൈവം": 8168,
      "കൊണ്ടുപോക": 8169,
      "ധനമന്ത്രി": 8170,
      "##കഥ": 8171,
      "##ച്ചർ": 8172,
      "##രുന്നാലും": 8173,
      "തുടർന്നു": 8174,
      "##ന്സ": 8175,
      "ഇടി": 8176,
      "##പ്പോലെ": 8177,
      "ഫ്രാൻ": 8178,
      "സയൻസ്": 8179,
      "##et": 8180,
      "ബിഷ": 8181,
      "ശരാശ": 8182,
      "ബുദ്ധിമുട്ട": 8183,
      "വൺ": 8184,
      "ലഭിക്ക": 8185,
      "ഗെയി": 8186,
      "##ോളിവ": 8187,
      "ജങ്": 8188,
      "##ോളി": 8189,
      "കേരളത്തിന്": 8190,
      "വിശുദ്ധ": 8191,
      "മാനേജ്മെന്റ്": 8192,
      "താൽക്കാലിക": 8193,
      "കടുവ": 8194,
      "പയ്യ": 8195,
      "##നൈ": 8196,
      "##ഞ്ഞത്": 8197,
      "അവയുടെ": 8198,
      "##ോട്": 8199,
      "ഒരുക്ക": 8200,
      "##വ്യവസ്ഥ": 8201,
      "www": 8202,
      "ചക്ര": 8203,
      "ഇടപാട": 8204,
      "ഗവര്": 8205,
      "നില്": 8206,
      "ഉപയോഗിച്ച": 8207,
      "വിൽപന": 8208,
      "##ുളള": 8209,
      "##ുകാരൻ": 8210,
      "ലളിത": 8211,
      "ഡേ": 8212,
      "##മോർ": 8213,
      "പറയാൻ": 8214,
      "പഠിപ്പ": 8215,
      "##ുമായുള്ള": 8216,
      "##പ്പിലെ": 8217,
      "##കുമാര്": 8218,
      "##ുകള്ക്ക്": 8219,
      "ഉൽപാദ": 8220,
      "##േറ്റർ": 8221,
      "##നിലെ": 8222,
      "ജലനിര": 8223,
      "സ്വർണം": 8224,
      "കാലാവധി": 8225,
      "##ൂടെയും": 8226,
      "മാധ": 8227,
      "##റ്റ്സ്": 8228,
      "##esday": 8229,
      "##യോഗം": 8230,
      "##ശിക്ഷ": 8231,
      "##ര്ത്ഥ": 8232,
      "സാഹചര്യത്തിലാണ്": 8233,
      "##ekerala": 8234,
      "##ല്പ്പ": 8235,
      "പുറമേ": 8236,
      "കുറിച്ചു": 8237,
      "നഷ്ടപ്പെട്ട": 8238,
      "##ക്രി": 8239,
      "തുല്യ": 8240,
      "##ായുള്ള": 8241,
      "പട്ടികജാതി": 8242,
      "##ാവശ്യപ്പെട്ട്": 8243,
      "##പ്പോൾ": 8244,
      "കാര്യങ്ങള്": 8245,
      "വിജയന്": 8246,
      "പാക്ക": 8247,
      "##സൻ": 8248,
      "##ങ്ങൾക്കു": 8249,
      "ലോകത്തിലെ": 8250,
      "തൃശ്ശൂര്": 8251,
      "ചിത്രത്തിൽ": 8252,
      "##മുണ്ടായ": 8253,
      "അന്തർ": 8254,
      "അക്കൗണ്ട്": 8255,
      "മുഴുവന്": 8256,
      "##ുകൂട്ട": 8257,
      "ഒഴുക": 8258,
      "homekerala": 8259,
      "ആശുപത്രിയിലേക്ക്": 8260,
      "ഡിഗ്രി": 8261,
      "##യിട്ടും": 8262,
      "നേരിട്ട": 8263,
      "സാധാരണയായി": 8264,
      "##ാക്കുന്നത്": 8265,
      "പരസ്പരം": 8266,
      "##ചരി": 8267,
      "ആഫ്രിക്ക": 8268,
      "##വിട്ടു": 8269,
      "ഡ്രൈവ": 8270,
      "സുൽ": 8271,
      "##ര്ശന": 8272,
      "കാണാതായ": 8273,
      "പ്രക്ഷോഭ": 8274,
      "കുഞ്ഞു": 8275,
      "ജ്ഞാന": 8276,
      "പരേ": 8277,
      "##ുപ്ര": 8278,
      "ഏഷ്യ": 8279,
      "##പ്പൂ": 8280,
      "ഉരുൾപൊട്ട": 8281,
      "പിള്ള": 8282,
      "മുഖം": 8283,
      "ദിവസങ്ങളിൽ": 8284,
      "##കൊഴുപ്പ്": 8285,
      "നിയമസഭാ": 8286,
      "##പൂര്": 8287,
      "##ബാധിത": 8288,
      "ചെയ്യാന്": 8289,
      "മൃഗകൊഴുപ്പ്": 8290,
      "ലഡുവിൽ": 8291,
      "അങ്ങനെയ": 8292,
      "##ിലായിരുന്നു": 8293,
      "##ിക്കെ": 8294,
      "##ിതമായി": 8295,
      "പ്രവേശിപ്പ": 8296,
      "ഉത്തരം": 8297,
      "പ്രവി": 8298,
      "നിലയില്": 8299,
      "സ്ട്ര": 8300,
      "##ിക്കപ്പെട്ടു": 8301,
      "##മൂല": 8302,
      "ഏതാ": 8303,
      "##ാകു": 8304,
      "##പ്പേ": 8305,
      "വിജയ്": 8306,
      "നടപടികള്": 8307,
      "##പ്പിട": 8308,
      "##ക്കുറിച്ചും": 8309,
      "ഇൻഡ": 8310,
      "രാഷ്ട്രപതി": 8311,
      "കാമ": 8312,
      "പിന്നാലെയാണ്": 8313,
      "ആപ്": 8314,
      "മുനി": 8315,
      "##ോളം": 8316,
      "##ൈൻ": 8317,
      "##മ്മി": 8318,
      "ഹൈസ്": 8319,
      "പ്രസിദ്ധീകരിക്ക": 8320,
      "ഒഴിവാക്കി": 8321,
      "വേട്ട": 8322,
      "പ്രസിഡൻറ്": 8323,
      "മദ്യപ": 8324,
      "സെക്കൻഡറി": 8325,
      "##ര്ക്കും": 8326,
      "സമ്പർക്ക": 8327,
      "ചോ": 8328,
      "വ്": 8329,
      "##ങ്ങളെല്ലാം": 8330,
      "അമ്പല": 8331,
      "##തരം": 8332,
      "##ദിവസ": 8333,
      "കരാറ": 8334,
      "##സിസി": 8335,
      "സിൽവർ": 8336,
      "##വയാണ്": 8337,
      "പ്രചാരണം": 8338,
      "##ാക്കര": 8339,
      "##ത്സവം": 8340,
      "വലു": 8341,
      "എടുത്തു": 8342,
      "അതോറിറ്റി": 8343,
      "##സ്ഥാൻ": 8344,
      "സൂക്ഷ്മ": 8345,
      "##ഗിരി": 8346,
      "##ല്യു": 8347,
      "##വൃ": 8348,
      "ലോകക": 8349,
      "ദേഹ": 8350,
      "പീഡിപ്പിച്ച": 8351,
      "ചേർക്കാറുണ്ടെന്ന്": 8352,
      "ഡല്ഹി": 8353,
      "മുൻപ്": 8354,
      "ഇയാള്": 8355,
      "##ാള്": 8356,
      "##ിയർ": 8357,
      "കുറ്റം": 8358,
      "കരുണ": 8359,
      "##നൻ": 8360,
      "മണിക്കൂർ": 8361,
      "വഞ്ച": 8362,
      "##ടങ്ങിയ": 8363,
      "##മണ്ണ": 8364,
      "##ന്തൽ": 8365,
      "എന്നിരുന്നാലും": 8366,
      "comments": 8367,
      "മേധാവ": 8368,
      "ഒളിമ്പി": 8369,
      "സൈന്യ": 8370,
      "കയറിയ": 8371,
      "ഭരണകൂട": 8372,
      "പര്യ": 8373,
      "##ിതമായ": 8374,
      "jul": 8375,
      "##ളിൽ": 8376,
      "##ന്റേയും": 8377,
      "ഉപയോഗിക്കുന്നു": 8378,
      "നേടിയത്": 8379,
      "##രുടെയും": 8380,
      "മറുപടിയ": 8381,
      "##ിക്കോ": 8382,
      "വിമര്ശ": 8383,
      "ആവേശ": 8384,
      "ch": 8385,
      "cate": 8386,
      "അണി": 8387,
      "##ടുത്തെ": 8388,
      "##ക്കാരൻ": 8389,
      "സകല": 8390,
      "##രാഗത": 8391,
      "##േല്": 8392,
      "##േറ്റു": 8393,
      "##കുമാരി": 8394,
      "കുമാര്": 8395,
      "വെട്ടി": 8396,
      "അധികാരം": 8397,
      "##ികളുമായി": 8398,
      "സെൽ": 8399,
      "സോഷ്യൽ": 8400,
      "##റായ": 8401,
      "##യിലി": 8402,
      "ഒരുപാട്": 8403,
      "##ശ്വാസം": 8404,
      "രംഗത്തെ": 8405,
      "##ാമം": 8406,
      "അപൂർ": 8407,
      "തൃശൂര്": 8408,
      "വേഗം": 8409,
      "##gori": 8410,
      "സംശയം": 8411,
      "ഒഴു": 8412,
      "##പാടി": 8413,
      "തുടര്": 8414,
      "ഗുരുവായ": 8415,
      "##വിധം": 8416,
      "മെമ്മ": 8417,
      "ഇത്രയും": 8418,
      "കേന്ദ്രസർക്ക": 8419,
      "##റങ്ങിയ": 8420,
      "##കോട": 8421,
      "##ക്കുകയാണ്": 8422,
      "##കളായി": 8423,
      "അനുഗ്രഹ": 8424,
      "കുടിവെള്ള": 8425,
      "എവിടെ": 8426,
      "##ാമെന്ന": 8427,
      "##ത്തിനുള്ളിൽ": 8428,
      "ശാഖ": 8429,
      "ടേ": 8430,
      "##ാനന്തര": 8431,
      "സ്ഥിരം": 8432,
      "##ികൊ": 8433,
      "നായക": 8434,
      "സപ്ലൈ": 8435,
      "ശിശു": 8436,
      "ഓണ്": 8437,
      "##റാം": 8438,
      "##രുപ": 8439,
      "##മിനൽ": 8440,
      "ക്ലി": 8441,
      "ബൂ": 8442,
      "##ജിന്റെ": 8443,
      "വിവരങ്ങള്": 8444,
      "പരമ്പരാഗത": 8445,
      "##തയ": 8446,
      "##യിക്കുന്നത്": 8447,
      "തുടങ്ങിയത്": 8448,
      "ഡയറക്ടറ": 8449,
      "എത്തുന്ന": 8450,
      "ഓടിക്കയറ": 8451,
      "പ്രദേശം": 8452,
      "##ിട്ടു": 8453,
      "വളർ": 8454,
      "##താണെന്നും": 8455,
      "നല്കിയത്": 8456,
      "നശിപ്പ": 8457,
      "പമ്പ": 8458,
      "രാജു": 8459,
      "കൃഷ": 8460,
      "യൂറോ": 8461,
      "കുറ്റകൃ": 8462,
      "നഷ്ടപരിഹാരം": 8463,
      "categori": 8464,
      "categories": 8465,
      "ചെയര്": 8466,
      "വീണാ": 8467,
      "ചിത്രത്തിലെ": 8468,
      "##ൂദ": 8469,
      "##രിക്കാം": 8470,
      "കൽപ": 8471,
      "##പഠ": 8472,
      "കൊണ്ടി": 8473,
      "##ീകൃത": 8474,
      "##ബിൻ": 8475,
      "തുടരുന്നു": 8476,
      "സപ്ലിമെന്ററി": 8477,
      "തകര്": 8478,
      "##ർജി": 8479,
      "##േണ്ടിവ": 8480,
      "കച്ചവ": 8481,
      "ക്കു": 8482,
      "##ജനം": 8483,
      "##ബ്രാ": 8484,
      "##ങ്കി": 8485,
      "##ിവ്": 8486,
      "കോടതിയില്": 8487,
      "##പ്പിനെ": 8488,
      "ശ്രദ്ധയിൽ": 8489,
      "എഞ്ചിന": 8490,
      "പിക്ക്": 8491,
      "##വാണ്": 8492,
      "##ഞ്ജു": 8493,
      "ന്നു": 8494,
      "കിരീ": 8495,
      "തനിക്ക": 8496,
      "ഗ്രാ": 8497,
      "കുറ്റപത്രം": 8498,
      "ശരാശരി": 8499,
      "എന്നിട്ടും": 8500,
      "##ക്രോ": 8501,
      "##ക്കുറി": 8502,
      "ഉപയോഗിക്ക": 8503,
      "നഗരം": 8504,
      "സുധാകരന്": 8505,
      "##ീരിക": 8506,
      "##സ്ഥാന്": 8507,
      "##നായിരുന്ന": 8508,
      "സർവ്": 8509,
      "സ്ഥാപിച്ച": 8510,
      "കാർഡ്": 8511,
      "മൊത്തം": 8512,
      "മേനോ": 8513,
      "പുതുതായി": 8514,
      "##ില്ലാതെ": 8515,
      "ഉൾപ്പെട്ട": 8516,
      "##മുണ്ടായിരുന്നു": 8517,
      "പരിശോധനയിൽ": 8518,
      "##നിന്നുവീണ്": 8519,
      "an": 8520,
      "##പത്ര": 8521,
      "ജമാ": 8522,
      "##മാക്കാൻ": 8523,
      "ഇതര": 8524,
      "റെയില്": 8525,
      "വിവരമ": 8526,
      "ട്രെയിനിൽനിന്നുവീണ്": 8527,
      "##മ്പ്ര": 8528,
      "കോർപറേഷൻ": 8529,
      "ഓടിക്കയറുന്നതിനിടെ": 8530,
      "##ന്ദ്": 8531,
      "ജനിച്ചു": 8532,
      "ലഭ്യമാക്ക": 8533,
      "കക്ഷ": 8534,
      "ഗർഭ": 8535,
      "##ig": 8536,
      "##പ്പിക്കുന്ന": 8537,
      "##ഡിങ്": 8538,
      "##സിൻ": 8539,
      "##നുബന്ധ": 8540,
      "ഡോള": 8541,
      "##ാറില്ല": 8542,
      "##യ്ക്കുള്ള": 8543,
      "യുദ്ധം": 8544,
      "##വർക്കും": 8545,
      "വെൽ": 8546,
      "ശരിയായ": 8547,
      "ഇറ്റ": 8548,
      "ദിവ്യ": 8549,
      "ഖു": 8550,
      "കൊല്ലപ്പെട്ടു": 8551,
      "കൊട്ടാര": 8552,
      "ബോട്ട": 8553,
      "##ലായി": 8554,
      "പുരാ": 8555,
      "##ുന്നതിന്റെ": 8556,
      "തകർക്ക": 8557,
      "റെയ്": 8558,
      "ബൈബിൾ": 8559,
      "മലബാർ": 8560,
      "സന്നദ്ധ": 8561,
      "ഉൾക്കൊള്ള": 8562,
      "##ുകളിലായി": 8563,
      "സംഘമാണ്": 8564,
      "അഭിഭാഷക": 8565,
      "രോ": 8566,
      "രവി": 8567,
      "ശാരീരിക": 8568,
      "ഭീതി": 8569,
      "നിലവിലുള്ള": 8570,
      "ഇസ്ലാ": 8571,
      "മില്ല": 8572,
      "##വേഴ്": 8573,
      "ഇത്തരത്തിൽ": 8574,
      "കാക്ക": 8575,
      "##ഥി": 8576,
      "##ങ്ങര": 8577,
      "##ദ്ദേശം": 8578,
      "##ന്തോ": 8579,
      "##ികെ": 8580,
      "കോളനി": 8581,
      "റദ്ദാക്ക": 8582,
      "കണക്കിലെ": 8583,
      "പുസ്തകം": 8584,
      "ഓഫീസ്": 8585,
      "ലണ്ട": 8586,
      "##ൂബ": 8587,
      "##റ്റേ": 8588,
      "എന്നിവയും": 8589,
      "ഹോസ്പി": 8590,
      "രാജ്യസഭ": 8591,
      "വിമർശനം": 8592,
      "മടങ്ങി": 8593,
      "തൃക്കാക്കര": 8594,
      "##മനു": 8595,
      "##ഫെ": 8596,
      "വിദ്": 8597,
      "ലു": 8598,
      "##ിച്ചുവ": 8599,
      "മറ്റൊരു": 8600,
      "പ്രസവ": 8601,
      "##ർദ്ദ": 8602,
      "വച്ച": 8603,
      "##ഥം": 8604,
      "നേതാവിന്": 8605,
      "യൂറ": 8606,
      "പരിഹാരം": 8607,
      "തൊഴിലാളി": 8608,
      "സിനിമയുടെ": 8609,
      "##ചെയ്തു": 8610,
      "##േണ്ടതുണ്ട്": 8611,
      "സിബിഐ": 8612,
      "യഥാർത്ഥ": 8613,
      "ഡീസ": 8614,
      "ചെയ്യാം": 8615,
      "##ുകളുടെയും": 8616,
      "തീർഥ": 8617,
      "കുറവ്": 8618,
      "അഭിമാന": 8619,
      "വളരെയ": 8620,
      "ഹൈസ്കൂ": 8621,
      "വേറെ": 8622,
      "##നായ്": 8623,
      "വാർത്തസമ്മേള": 8624,
      "കമ്മ്യൂണി": 8625,
      "കൊലപാതകം": 8626,
      "കബ": 8627,
      "മരം": 8628,
      "പ്രവർത്തിച്ച": 8629,
      "ക്യൂ": 8630,
      "ജ്യോ": 8631,
      "നാവ": 8632,
      "##ികൾക്കും": 8633,
      "പൊതുമ": 8634,
      "ദിനം": 8635,
      "##പ്പാട": 8636,
      "ട്രം": 8637,
      "##ന്ഡ്": 8638,
      "നിന": 8639,
      "നൽകുന്നു": 8640,
      "##ക്ഷേത്ര": 8641,
      "ഉന്നയിച്ച": 8642,
      "ദയ": 8643,
      "ഉണ്ടാകും": 8644,
      "അടിച്ച": 8645,
      "ക്രമക്കേ": 8646,
      "വാണിജ്യ": 8647,
      "പണ്ഡിത": 8648,
      "##പകട": 8649,
      "സെർ": 8650,
      "ആസ്": 8651,
      "##മാറ്റം": 8652,
      "##ിയുടെയും": 8653,
      "ലോകം": 8654,
      "ഓഫിസിൽ": 8655,
      "ഉയർന്നു": 8656,
      "ഉള്ളത്": 8657,
      "ഹാജരാക്കി": 8658,
      "ആരെ": 8659,
      "##യിട്ട്": 8660,
      "##ാകാര": 8661,
      "മുന്നോട്ട്": 8662,
      "വ്യക്തമായി": 8663,
      "##ടങ്ങുന്ന": 8664,
      "പ്രവര്ത്തനങ്ങള്": 8665,
      "സന്തോഷ്": 8666,
      "ഫ്രീ": 8667,
      "##വില്ല": 8668,
      "##ോഗം": 8669,
      "##ങ്ങളോ": 8670,
      "##ികളുടെയും": 8671,
      "അഭിനന്ദ": 8672,
      "##വൂർ": 8673,
      "രജിസ്റ്റര്": 8674,
      "ക്രിസ്തു": 8675,
      "ആർക്ക": 8676,
      "##മിനെ": 8677,
      "##ക്കിലെ": 8678,
      "വിപ്ല": 8679,
      "##േഷന്റെ": 8680,
      "സിം": 8681,
      "നെഹ്": 8682,
      "യാദ": 8683,
      "സ്കൂളിലെ": 8684,
      "അസുഖ": 8685,
      "##റേ": 8686,
      "ശക്തമായി": 8687,
      "രി": 8688,
      "തെലു": 8689,
      "മന്ത്രിയുടെ": 8690,
      "വിശദമായ": 8691,
      "തീവ്രവാദ": 8692,
      "##ാവായ": 8693,
      "സ്വാമ": 8694,
      "അഞ്ചാം": 8695,
      "ഗൗരവ": 8696,
      "കളമ": 8697,
      "ഉള്പ്പെടെ": 8698,
      "സ്ഫോടന": 8699,
      "##തെരഞ്ഞെടു": 8700,
      "##ീന്ദ്ര": 8701,
      "##കീ": 8702,
      "##ാമെന്നും": 8703,
      "തെരഞ്ഞെടുക്ക": 8704,
      "ഇറങ്ങി": 8705,
      "അറിയപ്പെടുന്നു": 8706,
      "ജലനിരപ്പ്": 8707,
      "##കളുമായി": 8708,
      "##ക്കുന്നതിന്": 8709,
      "##കൊണ്ട": 8710,
      "ശാന്ത": 8711,
      "റിപ്പോർ": 8712,
      "കയറ്റ": 8713,
      "ഏജൻസ": 8714,
      "സൂപ്ര": 8715,
      "പെട്ടെന്ന്": 8716,
      "##ോറ": 8717,
      "ട്രാ": 8718,
      "രേഖപ്പെടുത്ത": 8719,
      "##ഹ്മാൻ": 8720,
      "ഭരണം": 8721,
      "പൊള": 8722,
      "നിയമസഭയിൽ": 8723,
      "വിഴിഞ്ഞം": 8724,
      "നടത്തിയിരുന്നു": 8725,
      "##േട്ട": 8726,
      "റ്": 8727,
      "ചോദിച്ച": 8728,
      "ബ്ലാ": 8729,
      "##യ്ക്കായി": 8730,
      "താരതമ": 8731,
      "കൊണ്ടാണ്": 8732,
      "ക്വ": 8733,
      "ഇസ്രായ": 8734,
      "ബജറ്റ്": 8735,
      "അറസ്റ്റിലായ": 8736,
      "ചര": 8737,
      "##സിനും": 8738,
      "##യിലേ": 8739,
      "പൊലീസിനെ": 8740,
      "##ുമെല്ലാം": 8741,
      "ചെയ്യണം": 8742,
      "ചേര": 8743,
      "വിശ്വാസം": 8744,
      "നൗ": 8745,
      "കൂട്ടായ്മ": 8746,
      "ഡയറക്ടര്": 8747,
      "പ്രയോജന": 8748,
      "##റ്റും": 8749,
      "അധികാരവും": 8750,
      "പ്രതിസന്ധ": 8751,
      "##ക്കാനും": 8752,
      "ലൈബ്ര": 8753,
      "##ോത്സവ": 8754,
      "##ത്താൽ": 8755,
      "പിന്മാ": 8756,
      "##ോധ": 8757,
      "അകല": 8758,
      "##ങ്ങൽ": 8759,
      "##ിലാ": 8760,
      "ബോംബ": 8761,
      "പ്രാധാന്യം": 8762,
      "മദ": 8763,
      "പരമ": 8764,
      "മനുഷ്യാവകാശ": 8765,
      "സഹോദരൻ": 8766,
      "ഭൂരിപക്ഷ": 8767,
      "കേന്ദ്രമന്ത്രി": 8768,
      "തോന്നി": 8769,
      "സിയുടെ": 8770,
      "പ്രകടനം": 8771,
      "സ്ക്വാ": 8772,
      "പ്രണ": 8773,
      "വീട്ടിലേക്ക്": 8774,
      "പെണ്കുട്ട": 8775,
      "##സമാ": 8776,
      "മാധ്യമം": 8777,
      "##ട്രി": 8778,
      "അടുത്തി": 8779,
      "അട്ടപ്പാടി": 8780,
      "##ില്ലെന്ന": 8781,
      "##ഴ്ത്തി": 8782,
      "ഇവയുടെ": 8783,
      "സര്ക്കാരിന്റെ": 8784,
      "ഐസ": 8785,
      "തുടരും": 8786,
      "പ്രകാശ്": 8787,
      "വെറും": 8788,
      "##വാന": 8789,
      "##വേഷണ": 8790,
      "മാറ്റിയ": 8791,
      "ഒട്ടേറെ": 8792,
      "നിർണായക": 8793,
      "ആരി": 8794,
      "സ്ര": 8795,
      "ഇവയെ": 8796,
      "##ചെയ്ത": 8797,
      "ഡിജിറ്റൽ": 8798,
      "##നഷ്ട": 8799,
      "##നമേ": 8800,
      "അമ്മയുടെ": 8801,
      "പ്രവിശ്യ": 8802,
      "കടൽ": 8803,
      "വിളിച്ച്": 8804,
      "ഉണ്ണ": 8805,
      "##ശാസ്ത്രം": 8806,
      "അറബി": 8807,
      "പ്രദേശത്തെ": 8808,
      "പുന്ന": 8809,
      "##പ്പിന": 8810,
      "എൻജിനീയറിങ്": 8811,
      "##മറി": 8812,
      "പ്രോഗ്ര": 8813,
      "പാമ്പ": 8814,
      "##ുകാരെ": 8815,
      "നിശ്ചിത": 8816,
      "##ഗോപാൽ": 8817,
      "##മാണെന്ന": 8818,
      "##സംഘടന": 8819,
      "##നൊപ്പം": 8820,
      "അലോട്ട": 8821,
      "##ഹ്മണ": 8822,
      "ആസൂത്ര": 8823,
      "##ംഖ": 8824,
      "##ക്ഷണ": 8825,
      "അബ്ദുറ": 8826,
      "മകന്": 8827,
      "##പ്രദേശ്": 8828,
      "അതായത്": 8829,
      "കല്യാ": 8830,
      "##പദ്ധതി": 8831,
      "റേഷൻ": 8832,
      "##ൃയ": 8833,
      "##ദർശ": 8834,
      "പ്രതിയായ": 8835,
      "പരിശോധിച്ച": 8836,
      "ഔദ്യോഗിക": 8837,
      "ഏതാണ്ട്": 8838,
      "കുടുംബാംഗ": 8839,
      "കാരണമായി": 8840,
      "##യോഗ": 8841,
      "സംസ്ഥാനം": 8842,
      "ഭര്ത്ത": 8843,
      "സഞ്ചരിച്ച": 8844,
      "##iv": 8845,
      "മുഖ്യമ": 8846,
      "സീത": 8847,
      "കണ്ടെത്താൻ": 8848,
      "##ായുധ": 8849,
      "മാതാപിതാക്കള": 8850,
      "##ച്ചിരുന്ന": 8851,
      "ഇടം": 8852,
      "ആളുകളെ": 8853,
      "ഓഗ": 8854,
      "##വാസ്": 8855,
      "പറയും": 8856,
      "റിസ": 8857,
      "##ന്ത്രം": 8858,
      "##ക്കിങ്": 8859,
      "കൺവീനർ": 8860,
      "കാലിക്കറ്റ്": 8861,
      "പങ്കാളി": 8862,
      "##െണ്ണ": 8863,
      "ഉമ": 8864,
      "##ഷുറ": 8865,
      "##ec": 8866,
      "##ത്ന": 8867,
      "##ുകളായി": 8868,
      "##യിട്ടുള്ള": 8869,
      "അന്തരീക്ഷ": 8870,
      "##ര്ട്ട്": 8871,
      "വിഭവ": 8872,
      "##േറ്റം": 8873,
      "നിരന്തരം": 8874,
      "##ുപുഴ": 8875,
      "##െടുത്തിരുന്നു": 8876,
      "ഉറപ്പുവരുത്ത": 8877,
      "പത്തു": 8878,
      "നെറ്റ്": 8879,
      "##തിനാലാണ്": 8880,
      "പ്രഥമ": 8881,
      "ബംഗ്": 8882,
      "ഭൗ": 8883,
      "വിൽ": 8884,
      "വളർത്ത": 8885,
      "അവസാനം": 8886,
      "##ാനായില്ല": 8887,
      "റാങ്ക്": 8888,
      "##സസ്": 8889,
      "##ുകൂട": 8890,
      "തെക്ക്": 8891,
      "ബോര്": 8892,
      "##ോപി": 8893,
      "##ൊന്നുമില്ല": 8894,
      "പൗരത്വ": 8895,
      "##്യാപക": 8896,
      "കുടുംബശ്രീ": 8897,
      "ശിവൻകുട്ടി": 8898,
      "അട്ടിമറ": 8899,
      "ദില്ലി": 8900,
      "##ളും": 8901,
      "ആവശ്യമാണ്": 8902,
      "##ബന്ധന": 8903,
      "കറുത്ത": 8904,
      "പകര": 8905,
      "ട്രൈ": 8906,
      "##ടിയിൽ": 8907,
      "മുൻകൂർ": 8908,
      "##വീപ്": 8909,
      "##ശക്തി": 8910,
      "നെല്ല": 8911,
      "##ഫോഴ്സ്": 8912,
      "ജനപ്രതി": 8913,
      "സര്ക്കാറി": 8914,
      "തമ്മില്": 8915,
      "പ്": 8916,
      "##ഭാഷണം": 8917,
      "ഡോ": 8918,
      "##പ്പില": 8919,
      "സ്ക്ര": 8920,
      "##തുമാണ്": 8921,
      "സ്ഥാനത്ത്": 8922,
      "##ങ്ങളുള്ള": 8923,
      "ഫയർ": 8924,
      "##താണ": 8925,
      "##ത്തേരി": 8926,
      "പ്രണയ": 8927,
      "നഷ്ടം": 8928,
      "ലോക്സഭാ": 8929,
      "ഉൾപ്പെടുന്ന": 8930,
      "മന്ത്രാലയ": 8931,
      "##സ്വര": 8932,
      "രാസ": 8933,
      "##മുള": 8934,
      "അല്ലാഹുവിന്റെ": 8935,
      "പാർട്ടിയുടെ": 8936,
      "##യിരിക്കുന്ന": 8937,
      "മുന്നില്": 8938,
      "##മ്പോഴാണ്": 8939,
      "##ന്നിരുന്ന": 8940,
      "അഹമ്മദ്": 8941,
      "##ാന്ത്": 8942,
      "##ക്കാൾ": 8943,
      "ബിന്ദു": 8944,
      "മിഷൻ": 8945,
      "യുവതിയെ": 8946,
      "കിഴക്കൻ": 8947,
      "റിയാസ്": 8948,
      "##താമ": 8949,
      "ബാധക": 8950,
      "ഓണ്ലൈ": 8951,
      "ac": 8952,
      "##ലീം": 8953,
      "##തിയുമായി": 8954,
      "##തലത്തിൽ": 8955,
      "##മുണ്ടാക": 8956,
      "##പ്പറ്റ": 8957,
      "ഒന്നാണ്": 8958,
      "##പോല": 8959,
      "##ുകാരുടെ": 8960,
      "സമ്മേളനത്തിൽ": 8961,
      "കുറച്ച": 8962,
      "പുനരധി": 8963,
      "ആക്": 8964,
      "കുമ": 8965,
      "ചട": 8966,
      "ജഗ": 8967,
      "കാര്യമായ": 8968,
      "##ന്ദിര": 8969,
      "യൂനിവേഴ്": 8970,
      "നിർദേശിച്ചു": 8971,
      "സാമ്രാജ": 8972,
      "##കൃതി": 8973,
      "ഇവർക്ക്": 8974,
      "##ക്കുടി": 8975,
      "തടഞ്ഞ": 8976,
      "വൈകുന്ന": 8977,
      "പൂര്ണ": 8978,
      "മാസ്റ്റർ": 8979,
      "##ൂരില്": 8980,
      "വഴിയ": 8981,
      "##സഹായം": 8982,
      "##ട്ടിക": 8983,
      "മുങ്ങി": 8984,
      "പങ്കുവ": 8985,
      "##പ്പെട്ടിരിക്കുന്നു": 8986,
      "##നുമാണ്": 8987,
      "നിര്ദേശ": 8988,
      "ഹരജിയിൽ": 8989,
      "മുണ്ടക്ക": 8990,
      "##ീരിയ": 8991,
      "ചന്ദ്രശേഖ": 8992,
      "##ാധികാരി": 8993,
      "##ുണ്ടെങ്കിലും": 8994,
      "വിദ്യാലയ": 8995,
      "വിദ്യാർഥികൾക്ക്": 8996,
      "പഞ്ചായത്തിലെ": 8997,
      "കേസുകളിൽ": 8998,
      "താമസം": 8999,
      "അതുപോലെ": 9000,
      "കെട്ടിടം": 9001,
      "നേതൃത്വത്തില്": 9002,
      "സംഘടനയുടെ": 9003,
      "ജമ്മു": 9004,
      "കോർപ്പ": 9005,
      "##കാരി": 9006,
      "##ാത്തത്": 9007,
      "നഗരത്തിലെ": 9008,
      "##മൊ": 9009,
      "##ുകളുമായി": 9010,
      "പരാമർശം": 9011,
      "സംഭ": 9012,
      "##കൂടി": 9013,
      "മേല്": 9014,
      "##നേത": 9015,
      "ഏറ്റുമുട്ട": 9016,
      "താൽപര": 9017,
      "റേഡിയോ": 9018,
      "പ്രയാസ": 9019,
      "##ുകളിലാണ്": 9020,
      "പ്രതിഷ്ഠ": 9021,
      "ട്രാൻസ്": 9022,
      "ചിത്രത്തില്": 9023,
      "ഗ്രൂപ്പ്": 9024,
      "സന്ദേശം": 9025,
      "തെറ്റായ": 9026,
      "ആന്റ്": 9027,
      "ജനിച്ച": 9028,
      "വൈദ": 9029,
      "##മാത്ര": 9030,
      "ഫണ്ട": 9031,
      "##ുകൊ": 9032,
      "##ക്കുകൾ": 9033,
      "സുനിൽ": 9034,
      "##പ്പെടാൻ": 9035,
      "ട്വി": 9036,
      "##ടുന്ന": 9037,
      "കൈമാറിയ": 9038,
      "കുഞ്ഞിനെ": 9039,
      "നക്ഷത്ര": 9040,
      "##ക്കാം": 9041,
      "##വാട": 9042,
      "##ിനെയും": 9043,
      "സൗത്ത്": 9044,
      "ഗവൺ": 9045,
      "സുമ": 9046,
      "##സ്പദ": 9047,
      "അനുവദിച്ചു": 9048,
      "കൊലപ്പെടുത്തിയ": 9049,
      "പെരുമ്പ": 9050,
      "##ത്തിമ": 9051,
      "പിരി": 9052,
      "മനോജ്": 9053,
      "സമാനമായ": 9054,
      "##സാക്ഷ": 9055,
      "വിശദീകരിക്ക": 9056,
      "ദുരൂഹ": 9057,
      "ഇസ്ലാമ": 9058,
      "ഹേമ": 9059,
      "രക്ഷാപ്രവർത്ത": 9060,
      "##ര്യമ": 9061,
      "പോക്സ്": 9062,
      "സാധിക്കും": 9063,
      "വിനോദ്": 9064,
      "അത്തര": 9065,
      "മര്": 9066,
      "##സ്ട": 9067,
      "കോയ": 9068,
      "##യോര": 9069,
      "ബോയ്": 9070,
      "മോ": 9071,
      "വിമാനം": 9072,
      "ഒരാഴ്ച": 9073,
      "പൊള്ള": 9074,
      "##വിട്ടത്": 9075,
      "ബംഗ്ലാ": 9076,
      "ഓഹരി": 9077,
      "##്യയ": 9078,
      "##മില്ലാതെ": 9079,
      "##പരിധി": 9080,
      "##ുകയാണെന്നും": 9081,
      "##ir": 9082,
      "ഗതാഗതം": 9083,
      "മുഖ്യമന്ത്": 9084,
      "അഹ": 9085,
      "അറിയില്ല": 9086,
      "റെക്കോ": 9087,
      "##ക്കാലത്ത്": 9088,
      "##സ്വാമി": 9089,
      "സംവിധായകൻ": 9090,
      "##ിങ്": 9091,
      "##കത്ത്": 9092,
      "##ോജ": 9093,
      "അതുകൊണ്ടു": 9094,
      "മുന്നണി": 9095,
      "നിര്മ്മ": 9096,
      "അടിമ": 9097,
      "നിര്വഹ": 9098,
      "##ധാര": 9099,
      "##ധ്യം": 9100,
      "വേഗത": 9101,
      "ചാൻസലർ": 9102,
      "##ഡഡ്": 9103,
      "##ത്തിലേ": 9104,
      "##ണമെ": 9105,
      "കൈമാറാന്": 9106,
      "ഉത്സവ": 9107,
      "അവയെ": 9108,
      "ഗോത്ര": 9109,
      "##ംബ്": 9110,
      "##ട്ടുള്ളത്": 9111,
      "സ്റ്റു": 9112,
      "ഹാരി": 9113,
      "കോള": 9114,
      "##കൾക്കും": 9115,
      "##ിക്കേണ്ടത്": 9116,
      "ഡബ്ല്യു": 9117,
      "##ാവൂ": 9118,
      "സ്വാഭാവിക": 9119,
      "ചൂര": 9120,
      "വിദ്യാർഥിന": 9121,
      "കീഴിലുള്ള": 9122,
      "##ങ്ങൾക്ക": 9123,
      "ദിവസത്തെ": 9124,
      "സുപ്ര": 9125,
      "പുരാതന": 9126,
      "##ിക്കപ്പെടുന്ന": 9127,
      "എംപി": 9128,
      "ചെങ്ങ": 9129,
      "എത്തുന്നത്": 9130,
      "യഥാർഥ": 9131,
      "##റ്റിയുടെ": 9132,
      "കുര്യ": 9133,
      "##ക്കാരായ": 9134,
      "വടക്കൻ": 9135,
      "##എല്": 9136,
      "വെടിയ": 9137,
      "സൗഹൃദ": 9138,
      "ജ്യോതി": 9139,
      "##ോഹ": 9140,
      "രംഗത്ത": 9141,
      "വില്ലേജ": 9142,
      "കരിപ്പ": 9143,
      "സഖ്യ": 9144,
      "തടാക": 9145,
      "##നാരായണ": 9146,
      "കുതിര": 9147,
      "##ുണ്ടായിരുന്നത്": 9148,
      "പുലർച്ചെ": 9149,
      "സസ്പെൻഡ്": 9150,
      "ബിസിനസ്": 9151,
      "മനം": 9152,
      "##കുന്ന": 9153,
      "വഖ": 9154,
      "##ളിക": 9155,
      "വരെയാണ്": 9156,
      "മാറ്റിവെ": 9157,
      "##ത്താല്": 9158,
      "##ിക്കൂ": 9159,
      "വീണ്": 9160,
      "ശോഭ": 9161,
      "##്യാത": 9162,
      "##മിക്": 9163,
      "##മുക്ത": 9164,
      "അല്പ": 9165,
      "##ാലിറ്റി": 9166,
      "ദിലീപ്": 9167,
      "##ക്കൊണ്ട്": 9168,
      "സംസാരിച്ച": 9169,
      "##നടപട": 9170,
      "മുദ്രാവാ": 9171,
      "വെറുതെ": 9172,
      "##ണിത": 9173,
      "ആരാണ്": 9174,
      "വർഷമായി": 9175,
      "ശ്രീനി": 9176,
      "പിയ": 9177,
      "പണിയ": 9178,
      "##ായിരുന്നില്ല": 9179,
      "ഉത്തരവ": 9180,
      "##സ്ട്രി": 9181,
      "ആക്രമണത്തിൽ": 9182,
      "കമ്പ്യൂട്ടർ": 9183,
      "##സിദ്ധ": 9184,
      "ദാ": 9185,
      "ബുക്ക്": 9186,
      "##ത്തോടെയാണ്": 9187,
      "ഫോണ്": 9188,
      "ബെഞ്ച": 9189,
      "##ക്കാലം": 9190,
      "മജിസ്ട്രേറ്റ്": 9191,
      "മലിന": 9192,
      "##ക്ച": 9193,
      "##രാജ്യ": 9194,
      "കര്മ്മ": 9195,
      "ശതമാനവും": 9196,
      "സ്ഥിതിചെയ്യുന്ന": 9197,
      "##യാക്ക": 9198,
      "ജയിലിൽ": 9199,
      "##ല്യം": 9200,
      "##തില": 9201,
      "കാണുന്നത്": 9202,
      "ആയിരുന്ന": 9203,
      "തരത്തിലുള്ള": 9204,
      "നിർമിച്ച": 9205,
      "സർവീ": 9206,
      "തമിഴ്നാ": 9207,
      "റൈ": 9208,
      "നിഗമ": 9209,
      "##ക്കില്": 9210,
      "പൊതു": 9211,
      "കുട്ടികൾക്ക്": 9212,
      "കൈവശ": 9213,
      "ഘടന": 9214,
      "പങ്ക്": 9215,
      "അനുപ": 9216,
      "തലമുറ": 9217,
      "##നിർത്തി": 9218,
      "ബാക്കിയ": 9219,
      "##റ്റിലെ": 9220,
      "ഏക്കർ": 9221,
      "ഗൗ": 9222,
      "##റങ്ങ": 9223,
      "മുഹമ്മ": 9224,
      "##ാവുക": 9225,
      "##സമൂഹ": 9226,
      "തുടർച്ചയായി": 9227,
      "##നൊ": 9228,
      "##സാണ്": 9229,
      "##റ്റിങ്": 9230,
      "##വിതാം": 9231,
      "സുധാകര": 9232,
      "ഒരി": 9233,
      "സച്ചി": 9234,
      "##ടുപുഴ": 9235,
      "##ോർഡ്": 9236,
      "പൂർത്ത": 9237,
      "തയാറായി": 9238,
      "ധനകാര്യ": 9239,
      "വസ്തുത": 9240,
      "തിരിച്ചറിഞ്ഞ": 9241,
      "എന്നിവരെയാണ്": 9242,
      "പശ്ചാത്തലത്തിൽ": 9243,
      "ഷൈ": 9244,
      "##ലിൻ": 9245,
      "ഉറപ്പു": 9246,
      "ദുരന്തം": 9247,
      "ആദ്യഘട്ട": 9248,
      "ആത്മീയ": 9249,
      "ബേബി": 9250,
      "മന്ത്രാലയം": 9251,
      "ഹൗസ്": 9252,
      "കഞ്ചാവ്": 9253,
      "##േദം": 9254,
      "##ലിവ": 9255,
      "##രമായ": 9256,
      "##ഷനിൽ": 9257,
      "ദുബൈ": 9258,
      "##ൂസ്": 9259,
      "അയൽ": 9260,
      "കോർപ്പറ": 9261,
      "ദോഷ": 9262,
      "ലോകത്തെ": 9263,
      "പ്രമേയ": 9264,
      "##യിംസ്": 9265,
      "കിടക്കുന്ന": 9266,
      "ജോയി": 9267,
      "പുറത്തുവ": 9268,
      "ക്രിമിനൽ": 9269,
      "എടുത്തി": 9270,
      "ദിലീപി": 9271,
      "കോളേജിൽ": 9272,
      "ഹാർ": 9273,
      "##യ്ക്കുന്ന": 9274,
      "##മാണോ": 9275,
      "വടക്ക്": 9276,
      "വന്യജീവി": 9277,
      "ഗാർ": 9278,
      "ട്ട": 9279,
      "ഉണ്ടായത്": 9280,
      "ഗുജറാത്ത്": 9281,
      "##ത്തിലി": 9282,
      "ശ്രീരാമ": 9283,
      "സർവകലാശാലയിൽ": 9284,
      "പ്രോത്സാഹ": 9285,
      "അംഗീകാര": 9286,
      "ഹരിത": 9287,
      "സംരക്ഷണം": 9288,
      "ശബ്ദം": 9289,
      "നെഹ്റു": 9290,
      "ഫൗണ്ട": 9291,
      "മിന്ന": 9292,
      "ശിഹാ": 9293,
      "ഏര്പ്പ": 9294,
      "അന്വേഷണത്തിൽ": 9295,
      "ബാധിച്ച": 9296,
      "മാനേജർ": 9297,
      "ഹൈദരാ": 9298,
      "ബംഗ്ലാദേശ": 9299,
      "സ്വദേശികളായ": 9300,
      "അപ്പോൾ": 9301,
      "കാൻ": 9302,
      "##ാവുകയും": 9303,
      "മണ്ഡലത്തിൽ": 9304,
      "നന്മ": 9305,
      "##മാണി": 9306,
      "കോഴ്സ": 9307,
      "##സ്റ്റില്": 9308,
      "pr": 9309,
      "##ചാ": 9310,
      "##ത്തിലധികം": 9311,
      "##ലിസ്": 9312,
      "പ്രഖ്യാപനം": 9313,
      "അല്ലാഹ": 9314,
      "ടൗൺ": 9315,
      "##ang": 9316,
      "തൊ": 9317,
      "കാണപ്പെടുന്നു": 9318,
      "##ുണ്ടാകുന്ന": 9319,
      "##ധര": 9320,
      "##ോവ": 9321,
      "അരുൺ": 9322,
      "കോം": 9323,
      "നൽകുകയും": 9324,
      "തെക്കൻ": 9325,
      "ഉപതെരഞ്ഞെടു": 9326,
      "കുറ്റപ്പെടുത്തി": 9327,
      "നായ്": 9328,
      "##്രിക്": 9329,
      "##ായുക്ത": 9330,
      "##മേള": 9331,
      "മാര്ഗ": 9332,
      "ജുഡീഷ്യൽ": 9333,
      "അവളെ": 9334,
      "വ്യത്യാസ": 9335,
      "കുറ്റകൃത്യ": 9336,
      "ആശുപത്രിയിലെത്തി": 9337,
      "##ുകൂല്യ": 9338,
      "കവി": 9339,
      "മസ്": 9340,
      "ലക്ഷ്യമി": 9341,
      "ഫ്ലാ": 9342,
      "അവയ": 9343,
      "അത്ഭുത": 9344,
      "##നങ്ങൾക്ക്": 9345,
      "നടപടിക്രമ": 9346,
      "##ക്കേസിൽ": 9347,
      "##ത്തോ": 9348,
      "##ിച്ചിട്ടുള്ള": 9349,
      "ഇയാളുടെ": 9350,
      "സാന്നിധ്യ": 9351,
      "നിനക്ക്": 9352,
      "യുവതിയുടെ": 9353,
      "##ോടു": 9354,
      "വയസ്സിൽ": 9355,
      "നിലനിർത്ത": 9356,
      "ആർക്കും": 9357,
      "ജനം": 9358,
      "##ബറ": 9359,
      "ഇറങ്ങ": 9360,
      "##ഭാവം": 9361,
      "സിന്ധ": 9362,
      "കമ്പനിയ": 9363,
      "ചേർന്നാണ്": 9364,
      "പ്രളയ": 9365,
      "##ികളിലും": 9366,
      "തമ്പ": 9367,
      "മദ്ര": 9368,
      "##ുൾ": 9369,
      "##മംഗലം": 9370,
      "മിശ്ര": 9371,
      "കൃഷ്ണൻ": 9372,
      "ഡ്യൂട്ടി": 9373,
      "ഭവ": 9374,
      "##തയെ": 9375,
      "##ാദി": 9376,
      "##പ്പട": 9377,
      "തെറ്റിദ്ധ": 9378,
      "മേഖലകളിൽ": 9379,
      "കമ്പനിയുടെ": 9380,
      "ശത്രു": 9381,
      "ജലം": 9382,
      "ലോറി": 9383,
      "നരേന്ദ്രമോ": 9384,
      "##ത്തത്": 9385,
      "ജനപ്രതിനിധ": 9386,
      "പൂർത്തിയാക്ക": 9387,
      "തടയാൻ": 9388,
      "മഞ്ചേരി": 9389,
      "കോഴ്": 9390,
      "കുറു": 9391,
      "കഴിഞ്ഞദിവസം": 9392,
      "അറിയപ്പെടുന്ന": 9393,
      "അന്ത്യ": 9394,
      "##വ്വഹ": 9395,
      "##ാളിൽ": 9396,
      "##ത്തേയും": 9397,
      "മനോഹര": 9398,
      "ബദ": 9399,
      "പാർക്ക്": 9400,
      "കണ്ണൂരിൽ": 9401,
      "മാനന്ത": 9402,
      "ലാഭ": 9403,
      "പരിപാല": 9404,
      "പ്രതികരിച്ചു": 9405,
      "##ിട്ടുള്ള": 9406,
      "ഗ്രഹ": 9407,
[...]
